unsigned char model_tflite[] = {
  0x1c, 0x00, 0x00, 0x00, 0x54, 0x46, 0x4c, 0x33, 0x14, 0x00, 0x20, 0x00,
  0x04, 0x00, 0x08, 0x00, 0x0c, 0x00, 0x10, 0x00, 0x14, 0x00, 0x00, 0x00,
  0x18, 0x00, 0x1c, 0x00, 0x14, 0x00, 0x00, 0x00, 0x03, 0x00, 0x00, 0x00,
  0x18, 0x00, 0x00, 0x00, 0x20, 0x00, 0x00, 0x00, 0xfc, 0x01, 0x00, 0x00,
  0x20, 0x00, 0x00, 0x00, 0xa4, 0x01, 0x00, 0x00, 0x1c, 0x01, 0x00, 0x00,
  0x02, 0x00, 0x00, 0x00, 0x74, 0x12, 0x00, 0x00, 0xcc, 0x03, 0x00, 0x00,
  0x01, 0x00, 0x00, 0x00, 0x00, 0x02, 0x00, 0x00, 0x40, 0x00, 0x00, 0x00,
  0x1c, 0x7a, 0x00, 0x00, 0x18, 0x7a, 0x00, 0x00, 0x10, 0x79, 0x00, 0x00,
  0x7c, 0x78, 0x00, 0x00, 0xf4, 0x77, 0x00, 0x00, 0x6c, 0x77, 0x00, 0x00,
  0xe4, 0x76, 0x00, 0x00, 0x5c, 0x76, 0x00, 0x00, 0xd4, 0x75, 0x00, 0x00,
  0x4c, 0x75, 0x00, 0x00, 0x00, 0x75, 0x00, 0x00, 0x78, 0x74, 0x00, 0x00,
  0xf0, 0x73, 0x00, 0x00, 0x68, 0x73, 0x00, 0x00, 0xe0, 0x72, 0x00, 0x00,
  0x58, 0x72, 0x00, 0x00, 0xd0, 0x71, 0x00, 0x00, 0x48, 0x71, 0x00, 0x00,
  0xc0, 0x70, 0x00, 0x00, 0x38, 0x70, 0x00, 0x00, 0xb0, 0x6f, 0x00, 0x00,
  0x2c, 0x6f, 0x00, 0x00, 0x58, 0x6a, 0x00, 0x00, 0x80, 0x65, 0x00, 0x00,
  0xa8, 0x60, 0x00, 0x00, 0xd0, 0x5b, 0x00, 0x00, 0xf8, 0x56, 0x00, 0x00,
  0x20, 0x52, 0x00, 0x00, 0x48, 0x4d, 0x00, 0x00, 0x70, 0x48, 0x00, 0x00,
  0x98, 0x43, 0x00, 0x00, 0xc0, 0x3e, 0x00, 0x00, 0xe8, 0x39, 0x00, 0x00,
  0x10, 0x35, 0x00, 0x00, 0x38, 0x30, 0x00, 0x00, 0x60, 0x2b, 0x00, 0x00,
  0x88, 0x26, 0x00, 0x00, 0xb0, 0x21, 0x00, 0x00, 0xd8, 0x1c, 0x00, 0x00,
  0x00, 0x18, 0x00, 0x00, 0x28, 0x13, 0x00, 0x00, 0x4c, 0x12, 0x00, 0x00,
  0x74, 0x79, 0x00, 0x00, 0x70, 0x79, 0x00, 0x00, 0x6c, 0x79, 0x00, 0x00,
  0x68, 0x79, 0x00, 0x00, 0x64, 0x79, 0x00, 0x00, 0x60, 0x79, 0x00, 0x00,
  0x5c, 0x79, 0x00, 0x00, 0x58, 0x79, 0x00, 0x00, 0x54, 0x79, 0x00, 0x00,
  0x50, 0x79, 0x00, 0x00, 0x4c, 0x79, 0x00, 0x00, 0x48, 0x79, 0x00, 0x00,
  0x44, 0x79, 0x00, 0x00, 0x40, 0x79, 0x00, 0x00, 0x3c, 0x79, 0x00, 0x00,
  0x38, 0x79, 0x00, 0x00, 0x34, 0x79, 0x00, 0x00, 0x30, 0x79, 0x00, 0x00,
  0x2c, 0x79, 0x00, 0x00, 0x28, 0x79, 0x00, 0x00, 0x24, 0x79, 0x00, 0x00,
  0xbc, 0x00, 0x00, 0x00, 0x01, 0x00, 0x00, 0x00, 0x10, 0x00, 0x00, 0x00,
  0x00, 0x00, 0x0a, 0x00, 0x10, 0x00, 0x0c, 0x00, 0x08, 0x00, 0x04, 0x00,
  0x0a, 0x00, 0x00, 0x00, 0x0c, 0x00, 0x00, 0x00, 0x1c, 0x00, 0x00, 0x00,
  0x20, 0x00, 0x00, 0x00, 0x0f, 0x00, 0x00, 0x00, 0x73, 0x65, 0x72, 0x76,
  0x69, 0x6e, 0x67, 0x5f, 0x64, 0x65, 0x66, 0x61, 0x75, 0x6c, 0x74, 0x00,
  0x01, 0x00, 0x00, 0x00, 0x14, 0x00, 0x00, 0x00, 0x01, 0x00, 0x00, 0x00,
  0x28, 0x00, 0x00, 0x00, 0x08, 0x00, 0x0c, 0x00, 0x08, 0x00, 0x04, 0x00,
  0x08, 0x00, 0x00, 0x00, 0x3d, 0x00, 0x00, 0x00, 0x04, 0x00, 0x00, 0x00,
  0x08, 0x00, 0x00, 0x00, 0x64, 0x65, 0x6e, 0x73, 0x65, 0x5f, 0x31, 0x39,
  0x00, 0x00, 0x00, 0x00, 0x5a, 0x88, 0xff, 0xff, 0x04, 0x00, 0x00, 0x00,
  0x0b, 0x00, 0x00, 0x00, 0x64, 0x65, 0x6e, 0x73, 0x65, 0x5f, 0x69, 0x6e,
  0x70, 0x75, 0x74, 0x00, 0x01, 0x00, 0x00, 0x00, 0x0c, 0x00, 0x00, 0x00,
  0x08, 0x00, 0x0c, 0x00, 0x04, 0x00, 0x08, 0x00, 0x08, 0x00, 0x00, 0x00,
  0x08, 0x00, 0x00, 0x00, 0x3f, 0x00, 0x00, 0x00, 0x13, 0x00, 0x00, 0x00,
  0x6d, 0x69, 0x6e, 0x5f, 0x72, 0x75, 0x6e, 0x74, 0x69, 0x6d, 0x65, 0x5f,
  0x76, 0x65, 0x72, 0x73, 0x69, 0x6f, 0x6e, 0x00, 0xa6, 0x88, 0xff, 0xff,
  0x04, 0x00, 0x00, 0x00, 0x10, 0x00, 0x00, 0x00, 0x31, 0x2e, 0x35, 0x2e,
  0x30, 0x00, 0x00, 0x00, 0x00, 0x00, 0x00, 0x00, 0x00, 0x00, 0x00, 0x00,
  0x0f, 0x00, 0x00, 0x00, 0x4d, 0x4c, 0x49, 0x52, 0x20, 0x43, 0x6f, 0x6e,
  0x76, 0x65, 0x72, 0x74, 0x65, 0x64, 0x2e, 0x00, 0x00, 0x00, 0x0e, 0x00,
  0x18, 0x00, 0x04, 0x00, 0x08, 0x00, 0x0c, 0x00, 0x10, 0x00, 0x14, 0x00,
  0x0e, 0x00, 0x00, 0x00, 0x14, 0x00, 0x00, 0x00, 0x0c, 0x01, 0x00, 0x00,
  0x10, 0x01, 0x00, 0x00, 0x14, 0x01, 0x00, 0x00, 0x68, 0x01, 0x00, 0x00,
  0x3e, 0x00, 0x00, 0x00, 0xac, 0x77, 0x00, 0x00, 0x60, 0x77, 0x00, 0x00,
  0xbc, 0x76, 0x00, 0x00, 0x34, 0x76, 0x00, 0x00, 0xac, 0x75, 0x00, 0x00,
  0x24, 0x75, 0x00, 0x00, 0x9c, 0x74, 0x00, 0x00, 0x14, 0x74, 0x00, 0x00,
  0x8c, 0x73, 0x00, 0x00, 0x04, 0x73, 0x00, 0x00, 0xb8, 0x72, 0x00, 0x00,
  0x30, 0x72, 0x00, 0x00, 0xa8, 0x71, 0x00, 0x00, 0x20, 0x71, 0x00, 0x00,
  0x98, 0x70, 0x00, 0x00, 0x10, 0x70, 0x00, 0x00, 0x88, 0x6f, 0x00, 0x00,
  0x00, 0x6f, 0x00, 0x00, 0x78, 0x6e, 0x00, 0x00, 0xf0, 0x6d, 0x00, 0x00,
  0x6c, 0x6d, 0x00, 0x00, 0xd8, 0x6c, 0x00, 0x00, 0x00, 0x68, 0x00, 0x00,
  0x28, 0x63, 0x00, 0x00, 0x50, 0x5e, 0x00, 0x00, 0x78, 0x59, 0x00, 0x00,
  0xa0, 0x54, 0x00, 0x00, 0xc8, 0x4f, 0x00, 0x00, 0xf0, 0x4a, 0x00, 0x00,
  0x18, 0x46, 0x00, 0x00, 0x40, 0x41, 0x00, 0x00, 0x68, 0x3c, 0x00, 0x00,
  0x90, 0x37, 0x00, 0x00, 0xb8, 0x32, 0x00, 0x00, 0xe0, 0x2d, 0x00, 0x00,
  0x08, 0x29, 0x00, 0x00, 0x30, 0x24, 0x00, 0x00, 0x58, 0x1f, 0x00, 0x00,
  0x80, 0x1a, 0x00, 0x00, 0xa8, 0x15, 0x00, 0x00, 0xd0, 0x10, 0x00, 0x00,
  0xb8, 0x0f, 0x00, 0x00, 0xc4, 0x0e, 0x00, 0x00, 0xf4, 0x0d, 0x00, 0x00,
  0x34, 0x0d, 0x00, 0x00, 0x74, 0x0c, 0x00, 0x00, 0xb4, 0x0b, 0x00, 0x00,
  0xf4, 0x0a, 0x00, 0x00, 0x34, 0x0a, 0x00, 0x00, 0x74, 0x09, 0x00, 0x00,
  0xb4, 0x08, 0x00, 0x00, 0xf4, 0x07, 0x00, 0x00, 0x34, 0x07, 0x00, 0x00,
  0x74, 0x06, 0x00, 0x00, 0xb4, 0x05, 0x00, 0x00, 0xf4, 0x04, 0x00, 0x00,
  0x34, 0x04, 0x00, 0x00, 0x74, 0x03, 0x00, 0x00, 0xb4, 0x02, 0x00, 0x00,
  0xf4, 0x01, 0x00, 0x00, 0x4c, 0x01, 0x00, 0x00, 0xc4, 0x00, 0x00, 0x00,
  0x01, 0x00, 0x00, 0x00, 0x00, 0x00, 0x00, 0x00, 0x01, 0x00, 0x00, 0x00,
  0x3d, 0x00, 0x00, 0x00, 0x15, 0x00, 0x00, 0x00, 0xf8, 0x0e, 0x00, 0x00,
  0x28, 0x0e, 0x00, 0x00, 0x58, 0x0d, 0x00, 0x00, 0x98, 0x0c, 0x00, 0x00,
  0xd8, 0x0b, 0x00, 0x00, 0x18, 0x0b, 0x00, 0x00, 0x58, 0x0a, 0x00, 0x00,
  0x98, 0x09, 0x00, 0x00, 0xd8, 0x08, 0x00, 0x00, 0x18, 0x08, 0x00, 0x00,
  0x58, 0x07, 0x00, 0x00, 0x98, 0x06, 0x00, 0x00, 0xd8, 0x05, 0x00, 0x00,
  0x18, 0x05, 0x00, 0x00, 0x58, 0x04, 0x00, 0x00, 0x98, 0x03, 0x00, 0x00,
  0xd8, 0x02, 0x00, 0x00, 0x18, 0x02, 0x00, 0x00, 0x58, 0x01, 0x00, 0x00,
  0xb4, 0x00, 0x00, 0x00, 0x1c, 0x00, 0x00, 0x00, 0x04, 0x00, 0x00, 0x00,
  0x6d, 0x61, 0x69, 0x6e, 0x00, 0x00, 0x0e, 0x00, 0x18, 0x00, 0x08, 0x00,
  0x0c, 0x00, 0x10, 0x00, 0x07, 0x00, 0x14, 0x00, 0x0e, 0x00, 0x00, 0x00,
  0x00, 0x00, 0x00, 0x09, 0x01, 0x00, 0x00, 0x00, 0x1c, 0x00, 0x00, 0x00,
  0x10, 0x00, 0x00, 0x00, 0x04, 0x00, 0x00, 0x00, 0x92, 0x8a, 0xff, 0xff,
  0x00, 0x00, 0x80, 0x3f, 0x01, 0x00, 0x00, 0x00, 0x3d, 0x00, 0x00, 0x00,
  0x01, 0x00, 0x00, 0x00, 0x3c, 0x00, 0x00, 0x00, 0x68, 0xf1, 0xff, 0xff,
  0x19, 0x00, 0x00, 0x00, 0x00, 0x00, 0x00, 0x19, 0x01, 0x00, 0x00, 0x00,
  0x20, 0x8a, 0xff, 0xff, 0x14, 0x00, 0x00, 0x00, 0x3e, 0x00, 0x00, 0x00,
  0x24, 0x00, 0x00, 0x00, 0x40, 0x00, 0x00, 0x00, 0x10, 0x00, 0x00, 0x00,
  0x02, 0x00, 0x00, 0x00, 0x01, 0x00, 0x00, 0x00, 0x02, 0x00, 0x00, 0x00,
  0x02, 0x00, 0x00, 0x00, 0xff, 0xff, 0xff, 0xff, 0x02, 0x00, 0x00, 0x00,
  0x19, 0x00, 0x00, 0x00, 0x53, 0x74, 0x61, 0x74, 0x65, 0x66, 0x75, 0x6c,
  0x50, 0x61, 0x72, 0x74, 0x69, 0x74, 0x69, 0x6f, 0x6e, 0x65, 0x64, 0x43,
  0x61, 0x6c, 0x6c, 0x3a, 0x30, 0x00, 0x00, 0x00, 0x04, 0x8a, 0xff, 0xff,
  0xe2, 0xf2, 0xff, 0xff, 0x00, 0x00, 0x00, 0x08, 0x18, 0x00, 0x00, 0x00,
  0x0c, 0x00, 0x00, 0x00, 0x04, 0x00, 0x00, 0x00, 0x1c, 0x8a, 0xff, 0xff,
  0x01, 0x00, 0x00, 0x00, 0x3c, 0x00, 0x00, 0x00, 0x03, 0x00, 0x00, 0x00,
  0x3b, 0x00, 0x00, 0x00, 0x28, 0x00, 0x00, 0x00, 0x09, 0x00, 0x00, 0x00,
  0xa4, 0x8a, 0xff, 0xff, 0x14, 0x00, 0x00, 0x00, 0x3d, 0x00, 0x00, 0x00,
  0x24, 0x00, 0x00, 0x00, 0x5c, 0x00, 0x00, 0x00, 0x10, 0x00, 0x00, 0x00,
  0x02, 0x00, 0x00, 0x00, 0x01, 0x00, 0x00, 0x00, 0x02, 0x00, 0x00, 0x00,
  0x02, 0x00, 0x00, 0x00, 0xff, 0xff, 0xff, 0xff, 0x02, 0x00, 0x00, 0x00,
  0x36, 0x00, 0x00, 0x00, 0x73, 0x65, 0x71, 0x75, 0x65, 0x6e, 0x74, 0x69,
  0x61, 0x6c, 0x2f, 0x64, 0x65, 0x6e, 0x73, 0x65, 0x5f, 0x31, 0x39, 0x2f,
  0x4d, 0x61, 0x74, 0x4d, 0x75, 0x6c, 0x3b, 0x73, 0x65, 0x71, 0x75, 0x65,
  0x6e, 0x74, 0x69, 0x61, 0x6c, 0x2f, 0x64, 0x65, 0x6e, 0x73, 0x65, 0x5f,
  0x31, 0x39, 0x2f, 0x42, 0x69, 0x61, 0x73, 0x41, 0x64, 0x64, 0x00, 0x00,
  0xa4, 0x8a, 0xff, 0xff, 0x82, 0xf3, 0xff, 0xff, 0x00, 0x00, 0x00, 0x08,
  0x1c, 0x00, 0x00, 0x00, 0x10, 0x00, 0x00, 0x00, 0x04, 0x00, 0x00, 0x00,
  0xa6, 0xf2, 0xff, 0xff, 0x00, 0x00, 0x00, 0x01, 0x01, 0x00, 0x00, 0x00,
  0x3b, 0x00, 0x00, 0x00, 0x03, 0x00, 0x00, 0x00, 0x3a, 0x00, 0x00, 0x00,
  0x27, 0x00, 0x00, 0x00, 0x0a, 0x00, 0x00, 0x00, 0x48, 0x8b, 0xff, 0xff,
  0x14, 0x00, 0x00, 0x00, 0x3c, 0x00, 0x00, 0x00, 0x24, 0x00, 0x00, 0x00,
  0x74, 0x00, 0x00, 0x00, 0x10, 0x00, 0x00, 0x00, 0x02, 0x00, 0x00, 0x00,
  0x01, 0x00, 0x00, 0x00, 0x11, 0x00, 0x00, 0x00, 0x02, 0x00, 0x00, 0x00,
  0xff, 0xff, 0xff, 0xff, 0x11, 0x00, 0x00, 0x00, 0x4f, 0x00, 0x00, 0x00,
  0x73, 0x65, 0x71, 0x75, 0x65, 0x6e, 0x74, 0x69, 0x61, 0x6c, 0x2f, 0x64,
  0x65, 0x6e, 0x73, 0x65, 0x5f, 0x31, 0x38, 0x2f, 0x4d, 0x61, 0x74, 0x4d,
  0x75, 0x6c, 0x3b, 0x73, 0x65, 0x71, 0x75, 0x65, 0x6e, 0x74, 0x69, 0x61,
  0x6c, 0x2f, 0x64, 0x65, 0x6e, 0x73, 0x65, 0x5f, 0x31, 0x38, 0x2f, 0x52,
  0x65, 0x6c, 0x75, 0x3b, 0x73, 0x65, 0x71, 0x75, 0x65, 0x6e, 0x74, 0x69,
  0x61, 0x6c, 0x2f, 0x64, 0x65, 0x6e, 0x73, 0x65, 0x5f, 0x31, 0x38, 0x2f,
  0x42, 0x69, 0x61, 0x73, 0x41, 0x64, 0x64, 0x00, 0x60, 0x8b, 0xff, 0xff,
  0x3e, 0xf4, 0xff, 0xff, 0x00, 0x00, 0x00, 0x08, 0x1c, 0x00, 0x00, 0x00,
  0x10, 0x00, 0x00, 0x00, 0x04, 0x00, 0x00, 0x00, 0x62, 0xf3, 0xff, 0xff,
  0x00, 0x00, 0x00, 0x01, 0x01, 0x00, 0x00, 0x00, 0x3a, 0x00, 0x00, 0x00,
  0x03, 0x00, 0x00, 0x00, 0x39, 0x00, 0x00, 0x00, 0x26, 0x00, 0x00, 0x00,
  0x0b, 0x00, 0x00, 0x00, 0x04, 0x8c, 0xff, 0xff, 0x14, 0x00, 0x00, 0x00,
  0x3b, 0x00, 0x00, 0x00, 0x24, 0x00, 0x00, 0x00, 0x74, 0x00, 0x00, 0x00,
  0x10, 0x00, 0x00, 0x00, 0x02, 0x00, 0x00, 0x00, 0x01, 0x00, 0x00, 0x00,
  0x11, 0x00, 0x00, 0x00, 0x02, 0x00, 0x00, 0x00, 0xff, 0xff, 0xff, 0xff,
  0x11, 0x00, 0x00, 0x00, 0x4f, 0x00, 0x00, 0x00, 0x73, 0x65, 0x71, 0x75,
  0x65, 0x6e, 0x74, 0x69, 0x61, 0x6c, 0x2f, 0x64, 0x65, 0x6e, 0x73, 0x65,
  0x5f, 0x31, 0x37, 0x2f, 0x4d, 0x61, 0x74, 0x4d, 0x75, 0x6c, 0x3b, 0x73,
  0x65, 0x71, 0x75, 0x65, 0x6e, 0x74, 0x69, 0x61, 0x6c, 0x2f, 0x64, 0x65,
  0x6e, 0x73, 0x65, 0x5f, 0x31, 0x37, 0x2f, 0x52, 0x65, 0x6c, 0x75, 0x3b,
  0x73, 0x65, 0x71, 0x75, 0x65, 0x6e, 0x74, 0x69, 0x61, 0x6c, 0x2f, 0x64,
  0x65, 0x6e, 0x73, 0x65, 0x5f, 0x31, 0x37, 0x2f, 0x42, 0x69, 0x61, 0x73,
  0x41, 0x64, 0x64, 0x00, 0x1c, 0x8c, 0xff, 0xff, 0xfa, 0xf4, 0xff, 0xff,
  0x00, 0x00, 0x00, 0x08, 0x1c, 0x00, 0x00, 0x00, 0x10, 0x00, 0x00, 0x00,
  0x04, 0x00, 0x00, 0x00, 0x1e, 0xf4, 0xff, 0xff, 0x00, 0x00, 0x00, 0x01,
  0x01, 0x00, 0x00, 0x00, 0x39, 0x00, 0x00, 0x00, 0x03, 0x00, 0x00, 0x00,
  0x38, 0x00, 0x00, 0x00, 0x25, 0x00, 0x00, 0x00, 0x0c, 0x00, 0x00, 0x00,
  0xc0, 0x8c, 0xff, 0xff, 0x14, 0x00, 0x00, 0x00, 0x3a, 0x00, 0x00, 0x00,
  0x24, 0x00, 0x00, 0x00, 0x74, 0x00, 0x00, 0x00, 0x10, 0x00, 0x00, 0x00,
  0x02, 0x00, 0x00, 0x00, 0x01, 0x00, 0x00, 0x00, 0x11, 0x00, 0x00, 0x00,
  0x02, 0x00, 0x00, 0x00, 0xff, 0xff, 0xff, 0xff, 0x11, 0x00, 0x00, 0x00,
  0x4f, 0x00, 0x00, 0x00, 0x73, 0x65, 0x71, 0x75, 0x65, 0x6e, 0x74, 0x69,
  0x61, 0x6c, 0x2f, 0x64, 0x65, 0x6e, 0x73, 0x65, 0x5f, 0x31, 0x36, 0x2f,
  0x4d, 0x61, 0x74, 0x4d, 0x75, 0x6c, 0x3b, 0x73, 0x65, 0x71, 0x75, 0x65,
  0x6e, 0x74, 0x69, 0x61, 0x6c, 0x2f, 0x64, 0x65, 0x6e, 0x73, 0x65, 0x5f,
  0x31, 0x36, 0x2f, 0x52, 0x65, 0x6c, 0x75, 0x3b, 0x73, 0x65, 0x71, 0x75,
  0x65, 0x6e, 0x74, 0x69, 0x61, 0x6c, 0x2f, 0x64, 0x65, 0x6e, 0x73, 0x65,
  0x5f, 0x31, 0x36, 0x2f, 0x42, 0x69, 0x61, 0x73, 0x41, 0x64, 0x64, 0x00,
  0xd8, 0x8c, 0xff, 0xff, 0xb6, 0xf5, 0xff, 0xff, 0x00, 0x00, 0x00, 0x08,
  0x1c, 0x00, 0x00, 0x00, 0x10, 0x00, 0x00, 0x00, 0x04, 0x00, 0x00, 0x00,
  0xda, 0xf4, 0xff, 0xff, 0x00, 0x00, 0x00, 0x01, 0x01, 0x00, 0x00, 0x00,
  0x38, 0x00, 0x00, 0x00, 0x03, 0x00, 0x00, 0x00, 0x37, 0x00, 0x00, 0x00,
  0x24, 0x00, 0x00, 0x00, 0x0d, 0x00, 0x00, 0x00, 0x7c, 0x8d, 0xff, 0xff,
  0x14, 0x00, 0x00, 0x00, 0x39, 0x00, 0x00, 0x00, 0x24, 0x00, 0x00, 0x00,
  0x74, 0x00, 0x00, 0x00, 0x10, 0x00, 0x00, 0x00, 0x02, 0x00, 0x00, 0x00,
  0x01, 0x00, 0x00, 0x00, 0x11, 0x00, 0x00, 0x00, 0x02, 0x00, 0x00, 0x00,
  0xff, 0xff, 0xff, 0xff, 0x11, 0x00, 0x00, 0x00, 0x4f, 0x00, 0x00, 0x00,
  0x73, 0x65, 0x71, 0x75, 0x65, 0x6e, 0x74, 0x69, 0x61, 0x6c, 0x2f, 0x64,
  0x65, 0x6e, 0x73, 0x65, 0x5f, 0x31, 0x35, 0x2f, 0x4d, 0x61, 0x74, 0x4d,
  0x75, 0x6c, 0x3b, 0x73, 0x65, 0x71, 0x75, 0x65, 0x6e, 0x74, 0x69, 0x61,
  0x6c, 0x2f, 0x64, 0x65, 0x6e, 0x73, 0x65, 0x5f, 0x31, 0x35, 0x2f, 0x52,
  0x65, 0x6c, 0x75, 0x3b, 0x73, 0x65, 0x71, 0x75, 0x65, 0x6e, 0x74, 0x69,
  0x61, 0x6c, 0x2f, 0x64, 0x65, 0x6e, 0x73, 0x65, 0x5f, 0x31, 0x35, 0x2f,
  0x42, 0x69, 0x61, 0x73, 0x41, 0x64, 0x64, 0x00, 0x94, 0x8d, 0xff, 0xff,
  0x72, 0xf6, 0xff, 0xff, 0x00, 0x00, 0x00, 0x08, 0x1c, 0x00, 0x00, 0x00,
  0x10, 0x00, 0x00, 0x00, 0x04, 0x00, 0x00, 0x00, 0x96, 0xf5, 0xff, 0xff,
  0x00, 0x00, 0x00, 0x01, 0x01, 0x00, 0x00, 0x00, 0x37, 0x00, 0x00, 0x00,
  0x03, 0x00, 0x00, 0x00, 0x36, 0x00, 0x00, 0x00, 0x23, 0x00, 0x00, 0x00,
  0x0e, 0x00, 0x00, 0x00, 0x38, 0x8e, 0xff, 0xff, 0x14, 0x00, 0x00, 0x00,
  0x38, 0x00, 0x00, 0x00, 0x24, 0x00, 0x00, 0x00, 0x74, 0x00, 0x00, 0x00,
  0x10, 0x00, 0x00, 0x00, 0x02, 0x00, 0x00, 0x00, 0x01, 0x00, 0x00, 0x00,
  0x11, 0x00, 0x00, 0x00, 0x02, 0x00, 0x00, 0x00, 0xff, 0xff, 0xff, 0xff,
  0x11, 0x00, 0x00, 0x00, 0x4f, 0x00, 0x00, 0x00, 0x73, 0x65, 0x71, 0x75,
  0x65, 0x6e, 0x74, 0x69, 0x61, 0x6c, 0x2f, 0x64, 0x65, 0x6e, 0x73, 0x65,
  0x5f, 0x31, 0x34, 0x2f, 0x4d, 0x61, 0x74, 0x4d, 0x75, 0x6c, 0x3b, 0x73,
  0x65, 0x71, 0x75, 0x65, 0x6e, 0x74, 0x69, 0x61, 0x6c, 0x2f, 0x64, 0x65,
  0x6e, 0x73, 0x65, 0x5f, 0x31, 0x34, 0x2f, 0x52, 0x65, 0x6c, 0x75, 0x3b,
  0x73, 0x65, 0x71, 0x75, 0x65, 0x6e, 0x74, 0x69, 0x61, 0x6c, 0x2f, 0x64,
  0x65, 0x6e, 0x73, 0x65, 0x5f, 0x31, 0x34, 0x2f, 0x42, 0x69, 0x61, 0x73,
  0x41, 0x64, 0x64, 0x00, 0x50, 0x8e, 0xff, 0xff, 0x2e, 0xf7, 0xff, 0xff,
  0x00, 0x00, 0x00, 0x08, 0x1c, 0x00, 0x00, 0x00, 0x10, 0x00, 0x00, 0x00,
  0x04, 0x00, 0x00, 0x00, 0x52, 0xf6, 0xff, 0xff, 0x00, 0x00, 0x00, 0x01,
  0x01, 0x00, 0x00, 0x00, 0x36, 0x00, 0x00, 0x00, 0x03, 0x00, 0x00, 0x00,
  0x35, 0x00, 0x00, 0x00, 0x22, 0x00, 0x00, 0x00, 0x0f, 0x00, 0x00, 0x00,
  0xf4, 0x8e, 0xff, 0xff, 0x14, 0x00, 0x00, 0x00, 0x37, 0x00, 0x00, 0x00,
  0x24, 0x00, 0x00, 0x00, 0x74, 0x00, 0x00, 0x00, 0x10, 0x00, 0x00, 0x00,
  0x02, 0x00, 0x00, 0x00, 0x01, 0x00, 0x00, 0x00, 0x11, 0x00, 0x00, 0x00,
  0x02, 0x00, 0x00, 0x00, 0xff, 0xff, 0xff, 0xff, 0x11, 0x00, 0x00, 0x00,
  0x4f, 0x00, 0x00, 0x00, 0x73, 0x65, 0x71, 0x75, 0x65, 0x6e, 0x74, 0x69,
  0x61, 0x6c, 0x2f, 0x64, 0x65, 0x6e, 0x73, 0x65, 0x5f, 0x31, 0x33, 0x2f,
  0x4d, 0x61, 0x74, 0x4d, 0x75, 0x6c, 0x3b, 0x73, 0x65, 0x71, 0x75, 0x65,
  0x6e, 0x74, 0x69, 0x61, 0x6c, 0x2f, 0x64, 0x65, 0x6e, 0x73, 0x65, 0x5f,
  0x31, 0x33, 0x2f, 0x52, 0x65, 0x6c, 0x75, 0x3b, 0x73, 0x65, 0x71, 0x75,
  0x65, 0x6e, 0x74, 0x69, 0x61, 0x6c, 0x2f, 0x64, 0x65, 0x6e, 0x73, 0x65,
  0x5f, 0x31, 0x33, 0x2f, 0x42, 0x69, 0x61, 0x73, 0x41, 0x64, 0x64, 0x00,
  0x0c, 0x8f, 0xff, 0xff, 0xea, 0xf7, 0xff, 0xff, 0x00, 0x00, 0x00, 0x08,
  0x1c, 0x00, 0x00, 0x00, 0x10, 0x00, 0x00, 0x00, 0x04, 0x00, 0x00, 0x00,
  0x0e, 0xf7, 0xff, 0xff, 0x00, 0x00, 0x00, 0x01, 0x01, 0x00, 0x00, 0x00,
  0x35, 0x00, 0x00, 0x00, 0x03, 0x00, 0x00, 0x00, 0x34, 0x00, 0x00, 0x00,
  0x21, 0x00, 0x00, 0x00, 0x10, 0x00, 0x00, 0x00, 0xb0, 0x8f, 0xff, 0xff,
  0x14, 0x00, 0x00, 0x00, 0x36, 0x00, 0x00, 0x00, 0x24, 0x00, 0x00, 0x00,
  0x74, 0x00, 0x00, 0x00, 0x10, 0x00, 0x00, 0x00, 0x02, 0x00, 0x00, 0x00,
  0x01, 0x00, 0x00, 0x00, 0x11, 0x00, 0x00, 0x00, 0x02, 0x00, 0x00, 0x00,
  0xff, 0xff, 0xff, 0xff, 0x11, 0x00, 0x00, 0x00, 0x4f, 0x00, 0x00, 0x00,
  0x73, 0x65, 0x71, 0x75, 0x65, 0x6e, 0x74, 0x69, 0x61, 0x6c, 0x2f, 0x64,
  0x65, 0x6e, 0x73, 0x65, 0x5f, 0x31, 0x32, 0x2f, 0x4d, 0x61, 0x74, 0x4d,
  0x75, 0x6c, 0x3b, 0x73, 0x65, 0x71, 0x75, 0x65, 0x6e, 0x74, 0x69, 0x61,
  0x6c, 0x2f, 0x64, 0x65, 0x6e, 0x73, 0x65, 0x5f, 0x31, 0x32, 0x2f, 0x52,
  0x65, 0x6c, 0x75, 0x3b, 0x73, 0x65, 0x71, 0x75, 0x65, 0x6e, 0x74, 0x69,
  0x61, 0x6c, 0x2f, 0x64, 0x65, 0x6e, 0x73, 0x65, 0x5f, 0x31, 0x32, 0x2f,
  0x42, 0x69, 0x61, 0x73, 0x41, 0x64, 0x64, 0x00, 0xc8, 0x8f, 0xff, 0xff,
  0xa6, 0xf8, 0xff, 0xff, 0x00, 0x00, 0x00, 0x08, 0x1c, 0x00, 0x00, 0x00,
  0x10, 0x00, 0x00, 0x00, 0x04, 0x00, 0x00, 0x00, 0xca, 0xf7, 0xff, 0xff,
  0x00, 0x00, 0x00, 0x01, 0x01, 0x00, 0x00, 0x00, 0x34, 0x00, 0x00, 0x00,
  0x03, 0x00, 0x00, 0x00, 0x33, 0x00, 0x00, 0x00, 0x20, 0x00, 0x00, 0x00,
  0x11, 0x00, 0x00, 0x00, 0x6c, 0x90, 0xff, 0xff, 0x14, 0x00, 0x00, 0x00,
  0x35, 0x00, 0x00, 0x00, 0x24, 0x00, 0x00, 0x00, 0x74, 0x00, 0x00, 0x00,
  0x10, 0x00, 0x00, 0x00, 0x02, 0x00, 0x00, 0x00, 0x01, 0x00, 0x00, 0x00,
  0x11, 0x00, 0x00, 0x00, 0x02, 0x00, 0x00, 0x00, 0xff, 0xff, 0xff, 0xff,
  0x11, 0x00, 0x00, 0x00, 0x4f, 0x00, 0x00, 0x00, 0x73, 0x65, 0x71, 0x75,
  0x65, 0x6e, 0x74, 0x69, 0x61, 0x6c, 0x2f, 0x64, 0x65, 0x6e, 0x73, 0x65,
  0x5f, 0x31, 0x31, 0x2f, 0x4d, 0x61, 0x74, 0x4d, 0x75, 0x6c, 0x3b, 0x73,
  0x65, 0x71, 0x75, 0x65, 0x6e, 0x74, 0x69, 0x61, 0x6c, 0x2f, 0x64, 0x65,
  0x6e, 0x73, 0x65, 0x5f, 0x31, 0x31, 0x2f, 0x52, 0x65, 0x6c, 0x75, 0x3b,
  0x73, 0x65, 0x71, 0x75, 0x65, 0x6e, 0x74, 0x69, 0x61, 0x6c, 0x2f, 0x64,
  0x65, 0x6e, 0x73, 0x65, 0x5f, 0x31, 0x31, 0x2f, 0x42, 0x69, 0x61, 0x73,
  0x41, 0x64, 0x64, 0x00, 0x84, 0x90, 0xff, 0xff, 0x62, 0xf9, 0xff, 0xff,
  0x00, 0x00, 0x00, 0x08, 0x1c, 0x00, 0x00, 0x00, 0x10, 0x00, 0x00, 0x00,
  0x04, 0x00, 0x00, 0x00, 0x86, 0xf8, 0xff, 0xff, 0x00, 0x00, 0x00, 0x01,
  0x01, 0x00, 0x00, 0x00, 0x33, 0x00, 0x00, 0x00, 0x03, 0x00, 0x00, 0x00,
  0x32, 0x00, 0x00, 0x00, 0x1f, 0x00, 0x00, 0x00, 0x12, 0x00, 0x00, 0x00,
  0x28, 0x91, 0xff, 0xff, 0x14, 0x00, 0x00, 0x00, 0x34, 0x00, 0x00, 0x00,
  0x24, 0x00, 0x00, 0x00, 0x74, 0x00, 0x00, 0x00, 0x10, 0x00, 0x00, 0x00,
  0x02, 0x00, 0x00, 0x00, 0x01, 0x00, 0x00, 0x00, 0x11, 0x00, 0x00, 0x00,
  0x02, 0x00, 0x00, 0x00, 0xff, 0xff, 0xff, 0xff, 0x11, 0x00, 0x00, 0x00,
  0x4f, 0x00, 0x00, 0x00, 0x73, 0x65, 0x71, 0x75, 0x65, 0x6e, 0x74, 0x69,
  0x61, 0x6c, 0x2f, 0x64, 0x65, 0x6e, 0x73, 0x65, 0x5f, 0x31, 0x30, 0x2f,
  0x4d, 0x61, 0x74, 0x4d, 0x75, 0x6c, 0x3b, 0x73, 0x65, 0x71, 0x75, 0x65,
  0x6e, 0x74, 0x69, 0x61, 0x6c, 0x2f, 0x64, 0x65, 0x6e, 0x73, 0x65, 0x5f,
  0x31, 0x30, 0x2f, 0x52, 0x65, 0x6c, 0x75, 0x3b, 0x73, 0x65, 0x71, 0x75,
  0x65, 0x6e, 0x74, 0x69, 0x61, 0x6c, 0x2f, 0x64, 0x65, 0x6e, 0x73, 0x65,
  0x5f, 0x31, 0x30, 0x2f, 0x42, 0x69, 0x61, 0x73, 0x41, 0x64, 0x64, 0x00,
  0x40, 0x91, 0xff, 0xff, 0x1e, 0xfa, 0xff, 0xff, 0x00, 0x00, 0x00, 0x08,
  0x1c, 0x00, 0x00, 0x00, 0x10, 0x00, 0x00, 0x00, 0x04, 0x00, 0x00, 0x00,
  0x42, 0xf9, 0xff, 0xff, 0x00, 0x00, 0x00, 0x01, 0x01, 0x00, 0x00, 0x00,
  0x32, 0x00, 0x00, 0x00, 0x03, 0x00, 0x00, 0x00, 0x31, 0x00, 0x00, 0x00,
  0x1e, 0x00, 0x00, 0x00, 0x01, 0x00, 0x00, 0x00, 0xe4, 0x91, 0xff, 0xff,
  0x14, 0x00, 0x00, 0x00, 0x33, 0x00, 0x00, 0x00, 0x24, 0x00, 0x00, 0x00,
  0x74, 0x00, 0x00, 0x00, 0x10, 0x00, 0x00, 0x00, 0x02, 0x00, 0x00, 0x00,
  0x01, 0x00, 0x00, 0x00, 0x11, 0x00, 0x00, 0x00, 0x02, 0x00, 0x00, 0x00,
  0xff, 0xff, 0xff, 0xff, 0x11, 0x00, 0x00, 0x00, 0x4c, 0x00, 0x00, 0x00,
  0x73, 0x65, 0x71, 0x75, 0x65, 0x6e, 0x74, 0x69, 0x61, 0x6c, 0x2f, 0x64,
  0x65, 0x6e, 0x73, 0x65, 0x5f, 0x39, 0x2f, 0x4d, 0x61, 0x74, 0x4d, 0x75,
  0x6c, 0x3b, 0x73, 0x65, 0x71, 0x75, 0x65, 0x6e, 0x74, 0x69, 0x61, 0x6c,
  0x2f, 0x64, 0x65, 0x6e, 0x73, 0x65, 0x5f, 0x39, 0x2f, 0x52, 0x65, 0x6c,
  0x75, 0x3b, 0x73, 0x65, 0x71, 0x75, 0x65, 0x6e, 0x74, 0x69, 0x61, 0x6c,
  0x2f, 0x64, 0x65, 0x6e, 0x73, 0x65, 0x5f, 0x39, 0x2f, 0x42, 0x69, 0x61,
  0x73, 0x41, 0x64, 0x64, 0x00, 0x00, 0x00, 0x00, 0xfc, 0x91, 0xff, 0xff,
  0xda, 0xfa, 0xff, 0xff, 0x00, 0x00, 0x00, 0x08, 0x1c, 0x00, 0x00, 0x00,
  0x10, 0x00, 0x00, 0x00, 0x04, 0x00, 0x00, 0x00, 0xfe, 0xf9, 0xff, 0xff,
  0x00, 0x00, 0x00, 0x01, 0x01, 0x00, 0x00, 0x00, 0x31, 0x00, 0x00, 0x00,
  0x03, 0x00, 0x00, 0x00, 0x30, 0x00, 0x00, 0x00, 0x1d, 0x00, 0x00, 0x00,
  0x02, 0x00, 0x00, 0x00, 0xa0, 0x92, 0xff, 0xff, 0x14, 0x00, 0x00, 0x00,
  0x32, 0x00, 0x00, 0x00, 0x24, 0x00, 0x00, 0x00, 0x74, 0x00, 0x00, 0x00,
  0x10, 0x00, 0x00, 0x00, 0x02, 0x00, 0x00, 0x00, 0x01, 0x00, 0x00, 0x00,
  0x11, 0x00, 0x00, 0x00, 0x02, 0x00, 0x00, 0x00, 0xff, 0xff, 0xff, 0xff,
  0x11, 0x00, 0x00, 0x00, 0x4c, 0x00, 0x00, 0x00, 0x73, 0x65, 0x71, 0x75,
  0x65, 0x6e, 0x74, 0x69, 0x61, 0x6c, 0x2f, 0x64, 0x65, 0x6e, 0x73, 0x65,
  0x5f, 0x38, 0x2f, 0x4d, 0x61, 0x74, 0x4d, 0x75, 0x6c, 0x3b, 0x73, 0x65,
  0x71, 0x75, 0x65, 0x6e, 0x74, 0x69, 0x61, 0x6c, 0x2f, 0x64, 0x65, 0x6e,
  0x73, 0x65, 0x5f, 0x38, 0x2f, 0x52, 0x65, 0x6c, 0x75, 0x3b, 0x73, 0x65,
  0x71, 0x75, 0x65, 0x6e, 0x74, 0x69, 0x61, 0x6c, 0x2f, 0x64, 0x65, 0x6e,
  0x73, 0x65, 0x5f, 0x38, 0x2f, 0x42, 0x69, 0x61, 0x73, 0x41, 0x64, 0x64,
  0x00, 0x00, 0x00, 0x00, 0xb8, 0x92, 0xff, 0xff, 0x96, 0xfb, 0xff, 0xff,
  0x00, 0x00, 0x00, 0x08, 0x1c, 0x00, 0x00, 0x00, 0x10, 0x00, 0x00, 0x00,
  0x04, 0x00, 0x00, 0x00, 0xba, 0xfa, 0xff, 0xff, 0x00, 0x00, 0x00, 0x01,
  0x01, 0x00, 0x00, 0x00, 0x30, 0x00, 0x00, 0x00, 0x03, 0x00, 0x00, 0x00,
  0x2f, 0x00, 0x00, 0x00, 0x1c, 0x00, 0x00, 0x00, 0x03, 0x00, 0x00, 0x00,
  0x5c, 0x93, 0xff, 0xff, 0x14, 0x00, 0x00, 0x00, 0x31, 0x00, 0x00, 0x00,
  0x24, 0x00, 0x00, 0x00, 0x74, 0x00, 0x00, 0x00, 0x10, 0x00, 0x00, 0x00,
  0x02, 0x00, 0x00, 0x00, 0x01, 0x00, 0x00, 0x00, 0x11, 0x00, 0x00, 0x00,
  0x02, 0x00, 0x00, 0x00, 0xff, 0xff, 0xff, 0xff, 0x11, 0x00, 0x00, 0x00,
  0x4c, 0x00, 0x00, 0x00, 0x73, 0x65, 0x71, 0x75, 0x65, 0x6e, 0x74, 0x69,
  0x61, 0x6c, 0x2f, 0x64, 0x65, 0x6e, 0x73, 0x65, 0x5f, 0x37, 0x2f, 0x4d,
  0x61, 0x74, 0x4d, 0x75, 0x6c, 0x3b, 0x73, 0x65, 0x71, 0x75, 0x65, 0x6e,
  0x74, 0x69, 0x61, 0x6c, 0x2f, 0x64, 0x65, 0x6e, 0x73, 0x65, 0x5f, 0x37,
  0x2f, 0x52, 0x65, 0x6c, 0x75, 0x3b, 0x73, 0x65, 0x71, 0x75, 0x65, 0x6e,
  0x74, 0x69, 0x61, 0x6c, 0x2f, 0x64, 0x65, 0x6e, 0x73, 0x65, 0x5f, 0x37,
  0x2f, 0x42, 0x69, 0x61, 0x73, 0x41, 0x64, 0x64, 0x00, 0x00, 0x00, 0x00,
  0x74, 0x93, 0xff, 0xff, 0x52, 0xfc, 0xff, 0xff, 0x00, 0x00, 0x00, 0x08,
  0x1c, 0x00, 0x00, 0x00, 0x10, 0x00, 0x00, 0x00, 0x04, 0x00, 0x00, 0x00,
  0x76, 0xfb, 0xff, 0xff, 0x00, 0x00, 0x00, 0x01, 0x01, 0x00, 0x00, 0x00,
  0x2f, 0x00, 0x00, 0x00, 0x03, 0x00, 0x00, 0x00, 0x2e, 0x00, 0x00, 0x00,
  0x1b, 0x00, 0x00, 0x00, 0x04, 0x00, 0x00, 0x00, 0x18, 0x94, 0xff, 0xff,
  0x14, 0x00, 0x00, 0x00, 0x30, 0x00, 0x00, 0x00, 0x24, 0x00, 0x00, 0x00,
  0x74, 0x00, 0x00, 0x00, 0x10, 0x00, 0x00, 0x00, 0x02, 0x00, 0x00, 0x00,
  0x01, 0x00, 0x00, 0x00, 0x11, 0x00, 0x00, 0x00, 0x02, 0x00, 0x00, 0x00,
  0xff, 0xff, 0xff, 0xff, 0x11, 0x00, 0x00, 0x00, 0x4c, 0x00, 0x00, 0x00,
  0x73, 0x65, 0x71, 0x75, 0x65, 0x6e, 0x74, 0x69, 0x61, 0x6c, 0x2f, 0x64,
  0x65, 0x6e, 0x73, 0x65, 0x5f, 0x36, 0x2f, 0x4d, 0x61, 0x74, 0x4d, 0x75,
  0x6c, 0x3b, 0x73, 0x65, 0x71, 0x75, 0x65, 0x6e, 0x74, 0x69, 0x61, 0x6c,
  0x2f, 0x64, 0x65, 0x6e, 0x73, 0x65, 0x5f, 0x36, 0x2f, 0x52, 0x65, 0x6c,
  0x75, 0x3b, 0x73, 0x65, 0x71, 0x75, 0x65, 0x6e, 0x74, 0x69, 0x61, 0x6c,
  0x2f, 0x64, 0x65, 0x6e, 0x73, 0x65, 0x5f, 0x36, 0x2f, 0x42, 0x69, 0x61,
  0x73, 0x41, 0x64, 0x64, 0x00, 0x00, 0x00, 0x00, 0x30, 0x94, 0xff, 0xff,
  0x0e, 0xfd, 0xff, 0xff, 0x00, 0x00, 0x00, 0x08, 0x1c, 0x00, 0x00, 0x00,
  0x10, 0x00, 0x00, 0x00, 0x04, 0x00, 0x00, 0x00, 0x32, 0xfc, 0xff, 0xff,
  0x00, 0x00, 0x00, 0x01, 0x01, 0x00, 0x00, 0x00, 0x2e, 0x00, 0x00, 0x00,
  0x03, 0x00, 0x00, 0x00, 0x2d, 0x00, 0x00, 0x00, 0x1a, 0x00, 0x00, 0x00,
  0x05, 0x00, 0x00, 0x00, 0xd4, 0x94, 0xff, 0xff, 0x14, 0x00, 0x00, 0x00,
  0x2f, 0x00, 0x00, 0x00, 0x24, 0x00, 0x00, 0x00, 0x74, 0x00, 0x00, 0x00,
  0x10, 0x00, 0x00, 0x00, 0x02, 0x00, 0x00, 0x00, 0x01, 0x00, 0x00, 0x00,
  0x11, 0x00, 0x00, 0x00, 0x02, 0x00, 0x00, 0x00, 0xff, 0xff, 0xff, 0xff,
  0x11, 0x00, 0x00, 0x00, 0x4c, 0x00, 0x00, 0x00, 0x73, 0x65, 0x71, 0x75,
  0x65, 0x6e, 0x74, 0x69, 0x61, 0x6c, 0x2f, 0x64, 0x65, 0x6e, 0x73, 0x65,
  0x5f, 0x35, 0x2f, 0x4d, 0x61, 0x74, 0x4d, 0x75, 0x6c, 0x3b, 0x73, 0x65,
  0x71, 0x75, 0x65, 0x6e, 0x74, 0x69, 0x61, 0x6c, 0x2f, 0x64, 0x65, 0x6e,
  0x73, 0x65, 0x5f, 0x35, 0x2f, 0x52, 0x65, 0x6c, 0x75, 0x3b, 0x73, 0x65,
  0x71, 0x75, 0x65, 0x6e, 0x74, 0x69, 0x61, 0x6c, 0x2f, 0x64, 0x65, 0x6e,
  0x73, 0x65, 0x5f, 0x35, 0x2f, 0x42, 0x69, 0x61, 0x73, 0x41, 0x64, 0x64,
  0x00, 0x00, 0x00, 0x00, 0xec, 0x94, 0xff, 0xff, 0xca, 0xfd, 0xff, 0xff,
  0x00, 0x00, 0x00, 0x08, 0x1c, 0x00, 0x00, 0x00, 0x10, 0x00, 0x00, 0x00,
  0x04, 0x00, 0x00, 0x00, 0xee, 0xfc, 0xff, 0xff, 0x00, 0x00, 0x00, 0x01,
  0x01, 0x00, 0x00, 0x00, 0x2d, 0x00, 0x00, 0x00, 0x03, 0x00, 0x00, 0x00,
  0x2c, 0x00, 0x00, 0x00, 0x19, 0x00, 0x00, 0x00, 0x06, 0x00, 0x00, 0x00,
  0x90, 0x95, 0xff, 0xff, 0x14, 0x00, 0x00, 0x00, 0x2e, 0x00, 0x00, 0x00,
  0x24, 0x00, 0x00, 0x00, 0x74, 0x00, 0x00, 0x00, 0x10, 0x00, 0x00, 0x00,
  0x02, 0x00, 0x00, 0x00, 0x01, 0x00, 0x00, 0x00, 0x11, 0x00, 0x00, 0x00,
  0x02, 0x00, 0x00, 0x00, 0xff, 0xff, 0xff, 0xff, 0x11, 0x00, 0x00, 0x00,
  0x4c, 0x00, 0x00, 0x00, 0x73, 0x65, 0x71, 0x75, 0x65, 0x6e, 0x74, 0x69,
  0x61, 0x6c, 0x2f, 0x64, 0x65, 0x6e, 0x73, 0x65, 0x5f, 0x34, 0x2f, 0x4d,
  0x61, 0x74, 0x4d, 0x75, 0x6c, 0x3b, 0x73, 0x65, 0x71, 0x75, 0x65, 0x6e,
  0x74, 0x69, 0x61, 0x6c, 0x2f, 0x64, 0x65, 0x6e, 0x73, 0x65, 0x5f, 0x34,
  0x2f, 0x52, 0x65, 0x6c, 0x75, 0x3b, 0x73, 0x65, 0x71, 0x75, 0x65, 0x6e,
  0x74, 0x69, 0x61, 0x6c, 0x2f, 0x64, 0x65, 0x6e, 0x73, 0x65, 0x5f, 0x34,
  0x2f, 0x42, 0x69, 0x61, 0x73, 0x41, 0x64, 0x64, 0x00, 0x00, 0x00, 0x00,
  0xa8, 0x95, 0xff, 0xff, 0x86, 0xfe, 0xff, 0xff, 0x00, 0x00, 0x00, 0x08,
  0x1c, 0x00, 0x00, 0x00, 0x10, 0x00, 0x00, 0x00, 0x04, 0x00, 0x00, 0x00,
  0xaa, 0xfd, 0xff, 0xff, 0x00, 0x00, 0x00, 0x01, 0x01, 0x00, 0x00, 0x00,
  0x2c, 0x00, 0x00, 0x00, 0x03, 0x00, 0x00, 0x00, 0x2b, 0x00, 0x00, 0x00,
  0x18, 0x00, 0x00, 0x00, 0x07, 0x00, 0x00, 0x00, 0x4c, 0x96, 0xff, 0xff,
  0x14, 0x00, 0x00, 0x00, 0x2d, 0x00, 0x00, 0x00, 0x24, 0x00, 0x00, 0x00,
  0x74, 0x00, 0x00, 0x00, 0x10, 0x00, 0x00, 0x00, 0x02, 0x00, 0x00, 0x00,
  0x01, 0x00, 0x00, 0x00, 0x11, 0x00, 0x00, 0x00, 0x02, 0x00, 0x00, 0x00,
  0xff, 0xff, 0xff, 0xff, 0x11, 0x00, 0x00, 0x00, 0x4c, 0x00, 0x00, 0x00,
  0x73, 0x65, 0x71, 0x75, 0x65, 0x6e, 0x74, 0x69, 0x61, 0x6c, 0x2f, 0x64,
  0x65, 0x6e, 0x73, 0x65, 0x5f, 0x33, 0x2f, 0x4d, 0x61, 0x74, 0x4d, 0x75,
  0x6c, 0x3b, 0x73, 0x65, 0x71, 0x75, 0x65, 0x6e, 0x74, 0x69, 0x61, 0x6c,
  0x2f, 0x64, 0x65, 0x6e, 0x73, 0x65, 0x5f, 0x33, 0x2f, 0x52, 0x65, 0x6c,
  0x75, 0x3b, 0x73, 0x65, 0x71, 0x75, 0x65, 0x6e, 0x74, 0x69, 0x61, 0x6c,
  0x2f, 0x64, 0x65, 0x6e, 0x73, 0x65, 0x5f, 0x33, 0x2f, 0x42, 0x69, 0x61,
  0x73, 0x41, 0x64, 0x64, 0x00, 0x00, 0x00, 0x00, 0x64, 0x96, 0xff, 0xff,
  0x42, 0xff, 0xff, 0xff, 0x00, 0x00, 0x00, 0x08, 0x1c, 0x00, 0x00, 0x00,
  0x10, 0x00, 0x00, 0x00, 0x04, 0x00, 0x00, 0x00, 0x66, 0xfe, 0xff, 0xff,
  0x00, 0x00, 0x00, 0x01, 0x01, 0x00, 0x00, 0x00, 0x2b, 0x00, 0x00, 0x00,
  0x03, 0x00, 0x00, 0x00, 0x2a, 0x00, 0x00, 0x00, 0x17, 0x00, 0x00, 0x00,
  0x08, 0x00, 0x00, 0x00, 0x08, 0x97, 0xff, 0xff, 0x14, 0x00, 0x00, 0x00,
  0x2c, 0x00, 0x00, 0x00, 0x24, 0x00, 0x00, 0x00, 0x74, 0x00, 0x00, 0x00,
  0x10, 0x00, 0x00, 0x00, 0x02, 0x00, 0x00, 0x00, 0x01, 0x00, 0x00, 0x00,
  0x11, 0x00, 0x00, 0x00, 0x02, 0x00, 0x00, 0x00, 0xff, 0xff, 0xff, 0xff,
  0x11, 0x00, 0x00, 0x00, 0x4c, 0x00, 0x00, 0x00, 0x73, 0x65, 0x71, 0x75,
  0x65, 0x6e, 0x74, 0x69, 0x61, 0x6c, 0x2f, 0x64, 0x65, 0x6e, 0x73, 0x65,
  0x5f, 0x32, 0x2f, 0x4d, 0x61, 0x74, 0x4d, 0x75, 0x6c, 0x3b, 0x73, 0x65,
  0x71, 0x75, 0x65, 0x6e, 0x74, 0x69, 0x61, 0x6c, 0x2f, 0x64, 0x65, 0x6e,
  0x73, 0x65, 0x5f, 0x32, 0x2f, 0x52, 0x65, 0x6c, 0x75, 0x3b, 0x73, 0x65,
  0x71, 0x75, 0x65, 0x6e, 0x74, 0x69, 0x61, 0x6c, 0x2f, 0x64, 0x65, 0x6e,
  0x73, 0x65, 0x5f, 0x32, 0x2f, 0x42, 0x69, 0x61, 0x73, 0x41, 0x64, 0x64,
  0x00, 0x00, 0x00, 0x00, 0x30, 0x98, 0xff, 0xff, 0x00, 0x00, 0x0e, 0x00,
  0x14, 0x00, 0x00, 0x00, 0x08, 0x00, 0x0c, 0x00, 0x07, 0x00, 0x10, 0x00,
  0x0e, 0x00, 0x00, 0x00, 0x00, 0x00, 0x00, 0x08, 0x1c, 0x00, 0x00, 0x00,
  0x10, 0x00, 0x00, 0x00, 0x04, 0x00, 0x00, 0x00, 0x32, 0xff, 0xff, 0xff,
  0x00, 0x00, 0x00, 0x01, 0x01, 0x00, 0x00, 0x00, 0x2a, 0x00, 0x00, 0x00,
  0x03, 0x00, 0x00, 0x00, 0x29, 0x00, 0x00, 0x00, 0x16, 0x00, 0x00, 0x00,
  0x13, 0x00, 0x00, 0x00, 0xd4, 0x97, 0xff, 0xff, 0x14, 0x00, 0x00, 0x00,
  0x2b, 0x00, 0x00, 0x00, 0x24, 0x00, 0x00, 0x00, 0x74, 0x00, 0x00, 0x00,
  0x10, 0x00, 0x00, 0x00, 0x02, 0x00, 0x00, 0x00, 0x01, 0x00, 0x00, 0x00,
  0x11, 0x00, 0x00, 0x00, 0x02, 0x00, 0x00, 0x00, 0xff, 0xff, 0xff, 0xff,
  0x11, 0x00, 0x00, 0x00, 0x4c, 0x00, 0x00, 0x00, 0x73, 0x65, 0x71, 0x75,
  0x65, 0x6e, 0x74, 0x69, 0x61, 0x6c, 0x2f, 0x64, 0x65, 0x6e, 0x73, 0x65,
  0x5f, 0x31, 0x2f, 0x4d, 0x61, 0x74, 0x4d, 0x75, 0x6c, 0x3b, 0x73, 0x65,
  0x71, 0x75, 0x65, 0x6e, 0x74, 0x69, 0x61, 0x6c, 0x2f, 0x64, 0x65, 0x6e,
  0x73, 0x65, 0x5f, 0x31, 0x2f, 0x52, 0x65, 0x6c, 0x75, 0x3b, 0x73, 0x65,
  0x71, 0x75, 0x65, 0x6e, 0x74, 0x69, 0x61, 0x6c, 0x2f, 0x64, 0x65, 0x6e,
  0x73, 0x65, 0x5f, 0x31, 0x2f, 0x42, 0x69, 0x61, 0x73, 0x41, 0x64, 0x64,
  0x00, 0x00, 0x00, 0x00, 0xfc, 0x98, 0xff, 0xff, 0x00, 0x00, 0x0e, 0x00,
  0x16, 0x00, 0x00, 0x00, 0x08, 0x00, 0x0c, 0x00, 0x07, 0x00, 0x10, 0x00,
  0x0e, 0x00, 0x00, 0x00, 0x00, 0x00, 0x00, 0x08, 0x24, 0x00, 0x00, 0x00,
  0x18, 0x00, 0x00, 0x00, 0x0c, 0x00, 0x00, 0x00, 0x00, 0x00, 0x06, 0x00,
  0x08, 0x00, 0x07, 0x00, 0x06, 0x00, 0x00, 0x00, 0x00, 0x00, 0x00, 0x01,
  0x01, 0x00, 0x00, 0x00, 0x29, 0x00, 0x00, 0x00, 0x03, 0x00, 0x00, 0x00,
  0x00, 0x00, 0x00, 0x00, 0x15, 0x00, 0x00, 0x00, 0x14, 0x00, 0x00, 0x00,
  0x0c, 0x00, 0x10, 0x00, 0x0b, 0x00, 0x00, 0x00, 0x0c, 0x00, 0x04, 0x00,
  0x0c, 0x00, 0x00, 0x00, 0x09, 0x00, 0x00, 0x00, 0x00, 0x00, 0x00, 0x09,
  0x01, 0x00, 0x00, 0x00, 0xc4, 0x98, 0xff, 0xff, 0x14, 0x00, 0x00, 0x00,
  0x2a, 0x00, 0x00, 0x00, 0x24, 0x00, 0x00, 0x00, 0x6c, 0x00, 0x00, 0x00,
  0x10, 0x00, 0x00, 0x00, 0x02, 0x00, 0x00, 0x00, 0x01, 0x00, 0x00, 0x00,
  0x11, 0x00, 0x00, 0x00, 0x02, 0x00, 0x00, 0x00, 0xff, 0xff, 0xff, 0xff,
  0x11, 0x00, 0x00, 0x00, 0x46, 0x00, 0x00, 0x00, 0x73, 0x65, 0x71, 0x75,
  0x65, 0x6e, 0x74, 0x69, 0x61, 0x6c, 0x2f, 0x64, 0x65, 0x6e, 0x73, 0x65,
  0x2f, 0x4d, 0x61, 0x74, 0x4d, 0x75, 0x6c, 0x3b, 0x73, 0x65, 0x71, 0x75,
  0x65, 0x6e, 0x74, 0x69, 0x61, 0x6c, 0x2f, 0x64, 0x65, 0x6e, 0x73, 0x65,
  0x2f, 0x52, 0x65, 0x6c, 0x75, 0x3b, 0x73, 0x65, 0x71, 0x75, 0x65, 0x6e,
  0x74, 0x69, 0x61, 0x6c, 0x2f, 0x64, 0x65, 0x6e, 0x73, 0x65, 0x2f, 0x42,
  0x69, 0x61, 0x73, 0x41, 0x64, 0x64, 0x00, 0x00, 0xd4, 0x98, 0xff, 0xff,
  0xde, 0x99, 0xff, 0xff, 0x04, 0x00, 0x00, 0x00, 0x88, 0x00, 0x00, 0x00,
  0x02, 0xd6, 0xbc, 0x3c, 0xe3, 0x66, 0x9d, 0xbc, 0x93, 0xa7, 0x94, 0xbe,
  0x83, 0xbb, 0x3f, 0xbe, 0x44, 0x46, 0x32, 0x3d, 0x85, 0x9d, 0xa3, 0xbd,
  0x54, 0x44, 0x4e, 0x3d, 0x62, 0x37, 0xef, 0xba, 0xf0, 0x6b, 0xcf, 0x3d,
  0x6b, 0x12, 0x8d, 0xbe, 0x92, 0x1e, 0x3b, 0xbe, 0xb0, 0xbf, 0x19, 0xbf,
  0xfe, 0xbc, 0x68, 0x3d, 0x00, 0x9a, 0x85, 0xbe, 0x5b, 0xe7, 0x66, 0xbe,
  0x61, 0x04, 0x04, 0xbf, 0x21, 0x42, 0x03, 0xbe, 0x03, 0x1a, 0x2c, 0x3e,
  0xe1, 0x50, 0x34, 0xbb, 0x35, 0x0b, 0xb2, 0xbe, 0x34, 0x7c, 0x0c, 0x3e,
  0xe2, 0x25, 0x92, 0xbd, 0x21, 0x4d, 0xde, 0x3d, 0xfa, 0xa5, 0xa2, 0x3d,
  0x8a, 0xbf, 0x8e, 0xbb, 0xcc, 0xec, 0x56, 0xbd, 0xa0, 0x6e, 0xaf, 0xbe,
  0xa4, 0x71, 0x35, 0x3e, 0xa1, 0x74, 0xb6, 0xbd, 0xd5, 0xf7, 0x9d, 0xbd,
  0xdb, 0xf3, 0x68, 0xbe, 0xd1, 0xee, 0x04, 0xbf, 0x9e, 0x89, 0xdd, 0xbe,
  0x1a, 0xb2, 0x82, 0x3e, 0x1a, 0x9a, 0xff, 0xff, 0x10, 0x00, 0x00, 0x00,
  0x29, 0x00, 0x00, 0x00, 0x14, 0x00, 0x00, 0x00, 0x30, 0x00, 0x00, 0x00,
  0x02, 0x00, 0x00, 0x00, 0x02, 0x00, 0x00, 0x00, 0x11, 0x00, 0x00, 0x00,
  0x1a, 0x00, 0x00, 0x00, 0x73, 0x65, 0x71, 0x75, 0x65, 0x6e, 0x74, 0x69,
  0x61, 0x6c, 0x2f, 0x64, 0x65, 0x6e, 0x73, 0x65, 0x5f, 0x31, 0x39, 0x2f,
  0x4d, 0x61, 0x74, 0x4d, 0x75, 0x6c, 0x00, 0x00, 0xac, 0x99, 0xff, 0xff,
  0xb6, 0x9a, 0xff, 0xff, 0x04, 0x00, 0x00, 0x00, 0x84, 0x04, 0x00, 0x00,
  0x4f, 0x25, 0xa6, 0xbd, 0x5c, 0x0a, 0x84, 0xbf, 0x36, 0x26, 0x50, 0x3e,
  0x40, 0x0d, 0x97, 0xbf, 0xf0, 0x53, 0xa0, 0xbf, 0xc6, 0xa5, 0xe9, 0x3d,
  0x70, 0x8f, 0xa1, 0x3b, 0x00, 0x06, 0xaf, 0xbf, 0xb0, 0x28, 0xfd, 0xbe,
  0x7c, 0x4c, 0x1f, 0xbf, 0xe3, 0x4f, 0xee, 0x3e, 0xa4, 0x11, 0x1c, 0x3d,
  0x36, 0x98, 0x84, 0xbf, 0xc5, 0xd0, 0x96, 0xbf, 0x93, 0x67, 0x9a, 0x3d,
  0x04, 0xb5, 0x53, 0xbf, 0x16, 0x4d, 0x97, 0xbf, 0x6a, 0x58, 0x55, 0x3e,
  0xf2, 0xbb, 0x31, 0xbd, 0x2a, 0xc0, 0x47, 0xbe, 0x3c, 0x6d, 0x9c, 0xbc,
  0xd3, 0x00, 0x87, 0x3e, 0xc2, 0xea, 0x16, 0xbf, 0xb3, 0x46, 0xae, 0xbe,
  0xac, 0x2f, 0x7f, 0xbe, 0x1c, 0x52, 0xb9, 0xbd, 0xea, 0x3c, 0x4f, 0x3e,
  0x08, 0xc1, 0x73, 0xbf, 0x76, 0x22, 0xb6, 0xbe, 0xfe, 0xa5, 0x19, 0x3e,
  0x6f, 0x8e, 0x00, 0xbe, 0x52, 0x90, 0x45, 0xbd, 0xed, 0xd6, 0x95, 0xbe,
  0xd7, 0x51, 0xbb, 0xbd, 0x36, 0x85, 0x90, 0xbc, 0x9e, 0x93, 0xb8, 0xbf,
  0x30, 0xf1, 0x20, 0x3e, 0x3c, 0x6f, 0xca, 0xbf, 0xaf, 0x1d, 0x3d, 0xbf,
  0x52, 0xc6, 0x42, 0x3e, 0x90, 0xe3, 0xbb, 0xbc, 0x3e, 0x1f, 0xdf, 0xbf,
  0x78, 0xf8, 0x3c, 0xbf, 0x36, 0x82, 0x19, 0xbf, 0x1c, 0x29, 0xbe, 0x3e,
  0x8c, 0xa3, 0xb7, 0x3c, 0xc4, 0x5d, 0xc5, 0xbe, 0xa6, 0xee, 0x4f, 0xbf,
  0x16, 0x6d, 0x1c, 0xbf, 0x69, 0x5d, 0x32, 0xbf, 0x3c, 0x69, 0x65, 0xbf,
  0x58, 0xe5, 0x06, 0xbd, 0x41, 0xd7, 0xbb, 0xbe, 0x7d, 0xf9, 0x3c, 0xbd,
  0x53, 0x4f, 0xf2, 0xbe, 0x6d, 0x38, 0xd9, 0x3e, 0xb3, 0xab, 0x0b, 0xbf,
  0xbd, 0x60, 0x44, 0xbf, 0x0b, 0x05, 0xe9, 0xbe, 0xf8, 0x62, 0x9c, 0x3e,
  0x02, 0x0a, 0x57, 0xbe, 0xec, 0xbe, 0x66, 0xbd, 0x0a, 0x29, 0x9d, 0xbe,
  0x86, 0x3a, 0x9a, 0x3e, 0x4a, 0x38, 0xe6, 0x3d, 0x72, 0xb4, 0xeb, 0xbe,
  0xd6, 0x51, 0xb6, 0x3c, 0x30, 0xf5, 0xdc, 0x3e, 0xf3, 0xee, 0x57, 0x3d,
  0xf6, 0xd3, 0x90, 0xbe, 0xac, 0x38, 0x9e, 0xbe, 0x6f, 0xe2, 0x58, 0x3d,
  0x13, 0xe2, 0x33, 0xbe, 0x72, 0xd3, 0x8a, 0xbe, 0x05, 0x28, 0x95, 0x3e,
  0x60, 0xe4, 0x85, 0x3d, 0x47, 0xb4, 0xef, 0x3e, 0x65, 0xbc, 0x85, 0x3d,
  0x32, 0x01, 0x20, 0xbe, 0x1e, 0x52, 0xe1, 0xbd, 0x37, 0x25, 0xdb, 0x3e,
  0x57, 0x91, 0x32, 0xbe, 0x18, 0x01, 0xa9, 0x3d, 0x4b, 0xa4, 0x0f, 0x3e,
  0xe6, 0x54, 0x9c, 0xbe, 0xd5, 0x7a, 0x9d, 0x3e, 0x56, 0xae, 0xa2, 0xbe,
  0xaa, 0xe6, 0xe9, 0xbe, 0x85, 0xf3, 0x51, 0xbe, 0x52, 0x3e, 0xa5, 0xbc,
  0x52, 0x95, 0x7d, 0xbf, 0xf6, 0x21, 0x41, 0xbf, 0x1a, 0x63, 0x21, 0xbe,
  0xb0, 0x02, 0x25, 0x3e, 0x3d, 0x5e, 0x28, 0xbd, 0xe5, 0x5f, 0x44, 0xbf,
  0xb1, 0x00, 0xb0, 0xbe, 0xb6, 0x0d, 0x9a, 0x3e, 0x0b, 0x29, 0x88, 0x3e,
  0x17, 0xde, 0x9c, 0x3c, 0x8e, 0x34, 0xef, 0xbc, 0x03, 0xeb, 0x0e, 0x3f,
  0x2b, 0xb3, 0x2f, 0xbf, 0x69, 0xc1, 0x95, 0xbd, 0xd4, 0xd4, 0x0f, 0xbe,
  0x8b, 0x59, 0x61, 0xbd, 0x63, 0x1c, 0x20, 0xbe, 0x9e, 0xd3, 0x85, 0xbe,
  0x5b, 0x3e, 0x32, 0xbf, 0x98, 0x58, 0xf8, 0xbe, 0xfa, 0x2b, 0x39, 0xbd,
  0xc5, 0xa8, 0x12, 0xbd, 0x39, 0x43, 0x1d, 0xbe, 0x1d, 0x88, 0x57, 0xbd,
  0xb1, 0x71, 0x98, 0xbe, 0x95, 0xff, 0x73, 0x3e, 0xa3, 0xfe, 0xe7, 0x3d,
  0xb6, 0x2c, 0xb2, 0x3b, 0x07, 0xd8, 0xab, 0x3d, 0x3b, 0x0f, 0x91, 0x3e,
  0xf4, 0xf8, 0xa3, 0xbf, 0xfc, 0x99, 0x7f, 0xbe, 0xa0, 0x5e, 0x03, 0xbf,
  0x2b, 0x3e, 0x23, 0xbf, 0x7c, 0xed, 0xc0, 0x3d, 0x7f, 0x2a, 0x83, 0xbe,
  0x92, 0xea, 0x49, 0xbf, 0x1e, 0x85, 0x8e, 0xbe, 0x44, 0xdf, 0x5e, 0xbf,
  0xfd, 0xde, 0xe3, 0xbc, 0x4e, 0xde, 0x01, 0xbe, 0x67, 0x9a, 0x6f, 0xbf,
  0x50, 0x6b, 0xb1, 0xbe, 0x16, 0xca, 0x55, 0xbe, 0xe8, 0xd6, 0x4f, 0xbf,
  0xfa, 0xdc, 0xd7, 0xbe, 0x1f, 0x9e, 0xa7, 0xbe, 0x4e, 0xdc, 0x2f, 0xbe,
  0x1c, 0xfb, 0x85, 0xbe, 0x69, 0x95, 0x99, 0xbe, 0x20, 0xa4, 0xfb, 0x3d,
  0x72, 0x11, 0xa3, 0xbe, 0xbb, 0x10, 0xc9, 0x3e, 0xb7, 0xa0, 0x5c, 0x3d,
  0x2c, 0x8f, 0x99, 0x3e, 0x7f, 0xd8, 0xcc, 0x3c, 0x57, 0xe7, 0x0a, 0x3e,
  0xcc, 0x53, 0xd3, 0xbc, 0x70, 0xaa, 0x7b, 0x3e, 0x13, 0xd9, 0x3f, 0xbe,
  0x00, 0x37, 0xe2, 0x3d, 0xba, 0xa8, 0xa5, 0x3e, 0x10, 0xdf, 0xb2, 0xbe,
  0x99, 0xce, 0xed, 0x3d, 0xd4, 0xef, 0x8e, 0xbd, 0x19, 0x30, 0x88, 0xbe,
  0x87, 0x1e, 0xa5, 0x3d, 0x12, 0x95, 0xa7, 0xbd, 0x02, 0x4e, 0xca, 0xbe,
  0x64, 0xd8, 0xec, 0xbe, 0xab, 0xd7, 0x80, 0x3c, 0x89, 0xae, 0x7f, 0x3e,
  0x34, 0x28, 0x80, 0x3d, 0x78, 0x55, 0x65, 0x3d, 0x07, 0xb0, 0x8a, 0x3e,
  0x33, 0x94, 0xde, 0xbc, 0xd0, 0x09, 0xd1, 0xbe, 0x93, 0xc1, 0x5f, 0x3d,
  0x76, 0xc9, 0x88, 0x3c, 0x19, 0xf0, 0x36, 0xbe, 0xf4, 0xc7, 0x09, 0x3f,
  0x27, 0x69, 0x81, 0xbe, 0xe2, 0x42, 0x8b, 0xbe, 0x44, 0x17, 0xec, 0xbe,
  0x02, 0x89, 0x90, 0x3e, 0x15, 0xf1, 0xe3, 0xbe, 0x53, 0x0d, 0x9a, 0xbf,
  0x4b, 0x7b, 0x60, 0xbf, 0xdc, 0xbb, 0xd8, 0x3d, 0xd3, 0x1b, 0x39, 0xbb,
  0xf3, 0xf3, 0x03, 0xbe, 0x2d, 0xc0, 0xf5, 0xbe, 0xc7, 0x33, 0x07, 0x3e,
  0x25, 0x66, 0xa2, 0x3d, 0x15, 0x34, 0x7f, 0x3e, 0x52, 0x15, 0x97, 0xbe,
  0xd5, 0xf9, 0xb4, 0xbd, 0xa6, 0xf9, 0x83, 0x3e, 0xfd, 0x4a, 0xaa, 0xbe,
  0x85, 0xbf, 0x78, 0xbe, 0x26, 0xae, 0xc3, 0xbe, 0xf5, 0x7c, 0xd0, 0xbe,
  0x18, 0xc4, 0x6e, 0xbd, 0xd5, 0x69, 0xa0, 0xbe, 0x98, 0x5b, 0xfe, 0xbe,
  0xcd, 0x73, 0x42, 0xbf, 0x29, 0x34, 0x1e, 0xbf, 0xda, 0x60, 0xab, 0xbd,
  0xe0, 0x17, 0xd9, 0x3c, 0x55, 0x09, 0x5f, 0xbe, 0x89, 0x38, 0x4a, 0xbe,
  0xa5, 0x67, 0x05, 0xbe, 0xa5, 0xdb, 0x25, 0x3e, 0x60, 0x81, 0xec, 0x3d,
  0x92, 0x56, 0xe7, 0xbd, 0x8b, 0x97, 0x23, 0xbe, 0xc3, 0xde, 0x90, 0x3c,
  0x09, 0x67, 0x58, 0x3d, 0x35, 0xd1, 0xad, 0xbd, 0xd0, 0xbd, 0x05, 0x3e,
  0xd3, 0xc7, 0x76, 0xbe, 0x56, 0x40, 0xa2, 0x3d, 0xfa, 0x1a, 0x8b, 0x3e,
  0x56, 0xdd, 0x7d, 0x3e, 0x3e, 0x03, 0x17, 0xbf, 0x4c, 0xae, 0xdc, 0x3e,
  0xca, 0x16, 0xea, 0xbe, 0xc7, 0xb4, 0x33, 0xbe, 0xa7, 0xbb, 0xda, 0xbe,
  0x29, 0xa1, 0x81, 0x3e, 0xf5, 0x59, 0x12, 0xbd, 0x0f, 0xd3, 0x6f, 0xbe,
  0x5f, 0x8a, 0xe0, 0x3d, 0xd4, 0xa0, 0x9d, 0xbe, 0xa7, 0xbf, 0x15, 0x3c,
  0x56, 0x15, 0x26, 0xbd, 0x8e, 0xb1, 0x2f, 0xbe, 0x5e, 0x5c, 0x59, 0xbf,
  0x2e, 0x5c, 0xae, 0xbe, 0xbb, 0xcb, 0x43, 0xbd, 0x5a, 0x82, 0xea, 0x3e,
  0x1e, 0xb9, 0x79, 0x3e, 0x6b, 0x9c, 0xd4, 0xbe, 0x16, 0xe7, 0x97, 0xbe,
  0x56, 0x29, 0x57, 0xbd, 0xc0, 0x78, 0x1b, 0xbf, 0x3f, 0x20, 0x06, 0xbe,
  0xd4, 0x5a, 0x3a, 0x3e, 0x0f, 0x55, 0x5b, 0xbd, 0x19, 0x8c, 0xf6, 0xbd,
  0xec, 0xd6, 0x90, 0xbe, 0xf8, 0x86, 0x1f, 0x3e, 0xf8, 0x46, 0x82, 0xbe,
  0x3b, 0x55, 0xda, 0x3b, 0xff, 0x2e, 0xb0, 0x3e, 0xa5, 0x5b, 0xb9, 0xbe,
  0x2a, 0x5b, 0x87, 0x3e, 0x53, 0x13, 0x71, 0x3d, 0x49, 0xd3, 0x08, 0xbe,
  0xb1, 0xf7, 0x19, 0x3f, 0xa1, 0xfa, 0x91, 0xbe, 0x2f, 0xc5, 0x0a, 0xbd,
  0x64, 0x3b, 0x70, 0xbe, 0xe8, 0x82, 0x15, 0x3e, 0x97, 0x33, 0xf4, 0xbd,
  0x39, 0x0d, 0x73, 0x3e, 0x64, 0x30, 0x95, 0xbe, 0x33, 0x56, 0x53, 0x3d,
  0xf4, 0x89, 0xc8, 0x3d, 0x0c, 0x10, 0xc1, 0x3e, 0xa3, 0x36, 0xf3, 0xbe,
  0x1a, 0xb8, 0x5c, 0xbf, 0x06, 0x12, 0x4f, 0x3d, 0x35, 0x1e, 0x33, 0x3e,
  0xb8, 0x0c, 0xbe, 0xbd, 0x9a, 0x71, 0x82, 0xbe, 0xb2, 0xff, 0x8c, 0x3e,
  0x51, 0x51, 0x88, 0xbe, 0xe0, 0x45, 0x38, 0xb9, 0x81, 0x3a, 0x38, 0x3d,
  0xe9, 0xe9, 0xd5, 0xbd, 0xc7, 0x39, 0xf8, 0xbd, 0x04, 0xdc, 0xb0, 0x3d,
  0xc0, 0x72, 0x0c, 0xc0, 0xcf, 0xb8, 0x6b, 0xbe, 0x0e, 0x1f, 0x08, 0xc0,
  0xb3, 0x1d, 0x72, 0xbf, 0xe6, 0x3e, 0x33, 0x3e, 0x86, 0x4f, 0x07, 0xbe,
  0xfe, 0x10, 0x05, 0xc0, 0x33, 0xd4, 0x31, 0xbf, 0xfe, 0x84, 0x46, 0xbf,
  0x5f, 0x09, 0xcf, 0xbd, 0x26, 0xad, 0x38, 0x3e, 0x66, 0xd4, 0x9a, 0xbf,
  0x18, 0x75, 0xcd, 0xbf, 0x0d, 0x22, 0xd3, 0xbe, 0x33, 0x3d, 0x81, 0xbf,
  0x64, 0xed, 0xf9, 0xbf, 0xee, 0x9e, 0xff, 0xff, 0x10, 0x00, 0x00, 0x00,
  0x28, 0x00, 0x00, 0x00, 0x14, 0x00, 0x00, 0x00, 0x30, 0x00, 0x00, 0x00,
  0x02, 0x00, 0x00, 0x00, 0x11, 0x00, 0x00, 0x00, 0x11, 0x00, 0x00, 0x00,
  0x1a, 0x00, 0x00, 0x00, 0x73, 0x65, 0x71, 0x75, 0x65, 0x6e, 0x74, 0x69,
  0x61, 0x6c, 0x2f, 0x64, 0x65, 0x6e, 0x73, 0x65, 0x5f, 0x31, 0x38, 0x2f,
  0x4d, 0x61, 0x74, 0x4d, 0x75, 0x6c, 0x00, 0x00, 0x80, 0x9e, 0xff, 0xff,
  0x8a, 0x9f, 0xff, 0xff, 0x04, 0x00, 0x00, 0x00, 0x84, 0x04, 0x00, 0x00,
  0xe8, 0x00, 0x28, 0xbf, 0x50, 0xce, 0x2a, 0x3e, 0x4e, 0x55, 0xc3, 0xbe,
  0xc3, 0x57, 0xc7, 0x3d, 0x50, 0x8f, 0x6e, 0xbf, 0xc6, 0x64, 0x3a, 0xbf,
  0x68, 0x67, 0xd5, 0xbe, 0xcd, 0x8f, 0x1c, 0x3e, 0x5b, 0x94, 0x2d, 0x3e,
  0x01, 0xf7, 0x2b, 0xbc, 0x28, 0x6a, 0x30, 0xbf, 0x75, 0x58, 0xa3, 0xbe,
  0x24, 0xb6, 0xa2, 0x3e, 0x8b, 0xac, 0xf3, 0xbe, 0xf4, 0x82, 0x69, 0xbe,
  0x5b, 0x05, 0xba, 0xbf, 0x35, 0x22, 0xda, 0xbe, 0xa6, 0x4c, 0x3d, 0x3e,
  0x85, 0x28, 0xd0, 0xbe, 0xc1, 0xb8, 0xdf, 0x3e, 0xe6, 0x38, 0xf5, 0x3d,
  0xbe, 0x11, 0xc2, 0x3d, 0x32, 0xed, 0xae, 0x3e, 0x8e, 0x5e, 0xcf, 0x3d,
  0x93, 0x4c, 0xd5, 0x3e, 0x96, 0x00, 0xc4, 0x3e, 0x57, 0x18, 0xcb, 0x3e,
  0xba, 0xce, 0x8d, 0xbd, 0xe0, 0xf6, 0x82, 0x3e, 0xaa, 0x7a, 0x81, 0x3e,
  0xab, 0xc9, 0xcc, 0x3e, 0xe9, 0x77, 0x79, 0x3e, 0x1c, 0xb0, 0x66, 0x3d,
  0xad, 0x58, 0x12, 0x3c, 0x03, 0x91, 0x98, 0xbe, 0xbc, 0x9c, 0xc5, 0xbc,
  0xe2, 0xd5, 0x57, 0xbe, 0x00, 0x01, 0xa4, 0xbb, 0xa2, 0xde, 0xfa, 0xbe,
  0x7f, 0x8f, 0x89, 0xbe, 0x1f, 0xcc, 0xa4, 0xbe, 0x00, 0x41, 0xc4, 0xbd,
  0x56, 0x1e, 0x82, 0xbd, 0xe9, 0xd6, 0xa1, 0xbc, 0xf3, 0x49, 0xdf, 0xbd,
  0xba, 0x7a, 0xbb, 0x3e, 0x6c, 0xe7, 0x7b, 0x3e, 0x46, 0x68, 0xbb, 0xbe,
  0x6c, 0x5f, 0x09, 0xbe, 0xd8, 0x4c, 0xf4, 0xbe, 0x49, 0xc4, 0x31, 0x3e,
  0x48, 0x45, 0x12, 0x3e, 0xdb, 0xf8, 0x45, 0xbe, 0xde, 0xf4, 0x47, 0x3e,
  0x88, 0x9b, 0xec, 0x3e, 0xab, 0x20, 0x4a, 0x3e, 0x0e, 0xe6, 0x0a, 0x3e,
  0x84, 0x04, 0x77, 0xbc, 0x5e, 0x21, 0xad, 0x3e, 0xed, 0x98, 0x81, 0x3e,
  0x4e, 0x2a, 0x29, 0x3c, 0xb7, 0x48, 0x17, 0xbd, 0xc3, 0x65, 0xbd, 0xbe,
  0xe9, 0x6f, 0xcd, 0x3d, 0x08, 0x67, 0x1b, 0xbe, 0x8e, 0xbb, 0xad, 0x3e,
  0x36, 0x79, 0xb1, 0xbd, 0x4d, 0xf7, 0x03, 0x3e, 0x07, 0xfd, 0x83, 0xbe,
  0x17, 0x3e, 0x96, 0xbe, 0x0a, 0xc9, 0x3c, 0xbc, 0x43, 0x5f, 0x5b, 0xbe,
  0xd2, 0x40, 0x84, 0x3e, 0xfa, 0xd4, 0x5b, 0xbe, 0xb0, 0x05, 0xca, 0x3e,
  0x5a, 0xa4, 0xef, 0xbd, 0x9b, 0xe1, 0x8e, 0x3e, 0xfe, 0xae, 0xb5, 0x3d,
  0xab, 0x6a, 0xab, 0xbe, 0xf9, 0x57, 0x1c, 0xbd, 0x11, 0x06, 0xc3, 0x3e,
  0x4f, 0xb4, 0xd7, 0x3e, 0x71, 0x3a, 0x10, 0x3e, 0xbb, 0x8e, 0x8d, 0xbc,
  0xce, 0x93, 0x95, 0x3e, 0x8a, 0xc8, 0x07, 0xbf, 0x87, 0x3f, 0xda, 0x3e,
  0x23, 0x5d, 0x07, 0xbf, 0x9d, 0xf3, 0xdf, 0xbe, 0xb5, 0x05, 0xb5, 0xbe,
  0x63, 0x9f, 0x99, 0xbe, 0x0b, 0xff, 0x47, 0xbf, 0x98, 0x08, 0xe4, 0xbe,
  0x82, 0xd3, 0x50, 0x3e, 0x36, 0x0a, 0x9b, 0x3e, 0xf8, 0x25, 0x5a, 0xbf,
  0x23, 0xd6, 0xbe, 0x3e, 0xe9, 0x99, 0x99, 0x3d, 0x09, 0x13, 0x35, 0xbe,
  0xd2, 0xf7, 0xe5, 0x3d, 0x3d, 0xb6, 0x31, 0xbf, 0xc7, 0x5b, 0x02, 0xbf,
  0x05, 0xac, 0xfe, 0xbe, 0xfa, 0x15, 0x90, 0x3e, 0x12, 0xc7, 0x50, 0x3b,
  0x03, 0xc0, 0xa1, 0xbe, 0xa8, 0xb6, 0xf1, 0xbf, 0x87, 0x86, 0x08, 0x3f,
  0x86, 0x36, 0xbb, 0xbf, 0xa4, 0x59, 0x13, 0xbe, 0x14, 0x82, 0xb4, 0x3d,
  0xcc, 0x0d, 0x66, 0xbc, 0x1e, 0xef, 0x6d, 0xbf, 0x8a, 0x7d, 0xb3, 0xbe,
  0xab, 0xf3, 0x84, 0x3e, 0x0e, 0x5b, 0x12, 0xbf, 0x05, 0x5f, 0x9a, 0xbd,
  0xe2, 0xec, 0x9f, 0xbd, 0xa0, 0x33, 0xf6, 0xbe, 0xe9, 0x64, 0x13, 0x3e,
  0xf2, 0x91, 0x22, 0xba, 0x19, 0xda, 0xd5, 0x3e, 0x4d, 0x6b, 0x06, 0xbd,
  0x57, 0x08, 0x5a, 0xbe, 0x96, 0x0f, 0xf2, 0x3c, 0x07, 0xd6, 0x16, 0xbc,
  0x67, 0x1f, 0x72, 0x3e, 0x83, 0x2b, 0x38, 0xbc, 0xeb, 0x6c, 0x74, 0x3b,
  0xa0, 0xf5, 0x2d, 0x3e, 0x9c, 0x78, 0x34, 0x3e, 0x71, 0x46, 0x3b, 0x3d,
  0x47, 0x5b, 0x8a, 0xbe, 0xd7, 0x7e, 0xd7, 0xbe, 0x81, 0x55, 0x86, 0x3e,
  0x1c, 0x94, 0x3e, 0xbe, 0xf9, 0xed, 0xe9, 0x3e, 0x13, 0xdc, 0x65, 0xbe,
  0x8d, 0x57, 0xb6, 0x3d, 0xa9, 0xbe, 0xa6, 0x3e, 0x49, 0x1b, 0xec, 0x3c,
  0x90, 0xc5, 0x1f, 0xbe, 0xaa, 0x53, 0x95, 0x3e, 0x32, 0xb3, 0x71, 0x3e,
  0xdf, 0x45, 0xe2, 0xbd, 0x11, 0x3d, 0xb1, 0x3e, 0xf2, 0x4a, 0xac, 0xbd,
  0x62, 0xff, 0x4b, 0x3e, 0x3e, 0x61, 0x94, 0x3e, 0x45, 0x38, 0xdd, 0xbd,
  0xfa, 0xf7, 0x02, 0xbe, 0x0e, 0x6e, 0xf3, 0x3e, 0xa3, 0x9d, 0x59, 0xbe,
  0x45, 0xd7, 0x7b, 0xbe, 0xac, 0x4a, 0x8a, 0xbd, 0x3c, 0x38, 0x83, 0x3e,
  0x51, 0x5f, 0x1f, 0x3e, 0x48, 0x60, 0x90, 0xbe, 0x7e, 0xcd, 0x9e, 0xbd,
  0xd6, 0x50, 0xa0, 0x3e, 0xea, 0xac, 0xb0, 0x3d, 0x51, 0x3b, 0xd4, 0x3d,
  0xab, 0xb0, 0x80, 0xbe, 0x48, 0xc5, 0xc3, 0x3e, 0xef, 0x2f, 0x0d, 0x3e,
  0x11, 0xed, 0xc0, 0xbc, 0xd6, 0x92, 0x00, 0xbe, 0x59, 0x70, 0xcd, 0xbe,
  0x24, 0x05, 0xbd, 0x3e, 0xbe, 0x2a, 0xc2, 0x3c, 0x4f, 0xf2, 0x2c, 0xbf,
  0x9a, 0xc6, 0x53, 0xbe, 0xa7, 0x3e, 0xc1, 0xbd, 0x99, 0xcd, 0xfc, 0xbe,
  0x94, 0x6a, 0x1b, 0xc0, 0x27, 0xfd, 0x07, 0xbe, 0x4c, 0x4c, 0xbb, 0xbf,
  0xe1, 0x0f, 0x9a, 0xbe, 0xa2, 0xd2, 0x63, 0x3e, 0xe5, 0x50, 0x26, 0xbe,
  0x2e, 0x33, 0x45, 0xbf, 0x0b, 0x5b, 0xdb, 0xbd, 0xb8, 0xe3, 0xb9, 0x3d,
  0xec, 0x7f, 0x02, 0xbf, 0xb8, 0x88, 0xeb, 0x3e, 0x43, 0x00, 0xb7, 0xbf,
  0xe5, 0xdf, 0xdf, 0xbf, 0xa5, 0x87, 0x8a, 0xbe, 0x39, 0x24, 0x27, 0x3e,
  0xff, 0xd4, 0x26, 0x3e, 0x65, 0xc1, 0x6d, 0xbd, 0x46, 0xbd, 0x32, 0xbe,
  0xed, 0xf0, 0x77, 0x3c, 0xa5, 0x2a, 0x81, 0x3e, 0x56, 0x3f, 0x1e, 0xbd,
  0x32, 0x28, 0xbc, 0xbe, 0x16, 0x44, 0x5a, 0x3e, 0x5e, 0x55, 0xdd, 0xbe,
  0xdc, 0x69, 0x98, 0x3e, 0x88, 0x0d, 0xb6, 0x3d, 0x88, 0xc1, 0x68, 0xbe,
  0xb5, 0x62, 0x4c, 0xbe, 0x85, 0xa7, 0x60, 0xbd, 0x6a, 0x27, 0x06, 0xbf,
  0x66, 0x25, 0x81, 0x3c, 0xf1, 0x81, 0x1a, 0xbe, 0xc2, 0x96, 0xd2, 0x3e,
  0xa8, 0xed, 0xb6, 0x3e, 0x25, 0x18, 0xa3, 0xbd, 0xe8, 0x4d, 0x81, 0xbe,
  0xd7, 0x8f, 0x56, 0x3e, 0x03, 0x30, 0xcc, 0xbe, 0xdf, 0x2a, 0xa5, 0xbd,
  0xe8, 0xd8, 0x1b, 0x3d, 0x1c, 0xd4, 0x67, 0x3e, 0x8a, 0xe4, 0xa7, 0xbe,
  0xbb, 0x1e, 0xb1, 0x3e, 0xb9, 0x06, 0x8b, 0xbd, 0x64, 0x11, 0x77, 0x3e,
  0x5c, 0xba, 0xbc, 0xbe, 0xff, 0x3c, 0x39, 0xbe, 0x0d, 0xb7, 0x91, 0x3e,
  0x3e, 0xd4, 0xec, 0xbd, 0xbf, 0x44, 0x99, 0xbd, 0x19, 0x48, 0xc3, 0xbe,
  0x61, 0x2c, 0xc8, 0x3e, 0xc9, 0xe8, 0x95, 0xbe, 0x69, 0xbd, 0x66, 0x3e,
  0xe5, 0xc2, 0x6b, 0xbc, 0x08, 0x51, 0x7e, 0xbe, 0x59, 0xe8, 0xcd, 0xbc,
  0x8d, 0x62, 0x88, 0x3e, 0x0d, 0xb7, 0xba, 0x3d, 0xbd, 0xf4, 0x3b, 0xbe,
  0x1f, 0x22, 0xf5, 0x3e, 0xcd, 0xd4, 0xc1, 0xbe, 0xbd, 0xd7, 0x72, 0xbe,
  0x13, 0xec, 0x80, 0xbe, 0xfa, 0xd6, 0x37, 0xbd, 0xa7, 0x94, 0x85, 0xbe,
  0x1e, 0x94, 0x7d, 0xbe, 0x56, 0x71, 0xdd, 0xbe, 0x12, 0xfe, 0x87, 0xbe,
  0xf0, 0x1c, 0x00, 0x3d, 0x3f, 0x19, 0x68, 0x3e, 0x51, 0x37, 0x46, 0xbe,
  0xab, 0x44, 0x06, 0xbe, 0x6e, 0x56, 0x8e, 0x3d, 0x8d, 0xca, 0x80, 0x3c,
  0x9e, 0x41, 0xe0, 0xbe, 0x03, 0x19, 0x8a, 0x3e, 0x21, 0x2d, 0x39, 0xbe,
  0x2f, 0x5e, 0xe4, 0xbe, 0x08, 0x75, 0xf9, 0xbd, 0x28, 0xad, 0x2f, 0xbc,
  0x83, 0x3b, 0x8a, 0xbe, 0xfd, 0xa8, 0xaf, 0xbd, 0x84, 0x84, 0xbe, 0x3e,
  0xdc, 0x6e, 0x33, 0x3e, 0x83, 0xcf, 0x96, 0xbe, 0x71, 0xe4, 0x24, 0x3d,
  0x90, 0x0b, 0xeb, 0xbe, 0x25, 0xcb, 0xa3, 0x3e, 0x29, 0xf6, 0x43, 0xbd,
  0xca, 0x5e, 0xb6, 0xbe, 0x95, 0x40, 0x59, 0xbe, 0xfd, 0x88, 0x91, 0x3d,
  0x73, 0x37, 0x83, 0x3e, 0xa4, 0x55, 0x8f, 0x3d, 0x52, 0xfa, 0xcb, 0x3e,
  0x18, 0x28, 0x9d, 0xbd, 0x12, 0x46, 0x91, 0x3d, 0xf9, 0xb0, 0x6e, 0x3e,
  0x8d, 0x12, 0x0d, 0xbe, 0x35, 0x28, 0x8a, 0xbe, 0x4a, 0x3e, 0xed, 0xbd,
  0xbf, 0xd4, 0xc2, 0xbe, 0x50, 0x4d, 0x0e, 0xbd, 0x91, 0xc0, 0x73, 0xbe,
  0x3c, 0xb2, 0x1d, 0xbd, 0xe0, 0xe9, 0x73, 0x3e, 0x85, 0xf1, 0x96, 0x3e,
  0xe1, 0x65, 0xad, 0x3e, 0x33, 0x70, 0x32, 0xbe, 0xd4, 0x70, 0x56, 0x3e,
  0xc5, 0x96, 0x54, 0x3e, 0x7d, 0x71, 0x40, 0x3e, 0x15, 0x6f, 0x13, 0x3d,
  0xb4, 0x92, 0x95, 0xbd, 0xc2, 0xa3, 0xff, 0xff, 0x10, 0x00, 0x00, 0x00,
  0x27, 0x00, 0x00, 0x00, 0x14, 0x00, 0x00, 0x00, 0x30, 0x00, 0x00, 0x00,
  0x02, 0x00, 0x00, 0x00, 0x11, 0x00, 0x00, 0x00, 0x11, 0x00, 0x00, 0x00,
  0x1a, 0x00, 0x00, 0x00, 0x73, 0x65, 0x71, 0x75, 0x65, 0x6e, 0x74, 0x69,
  0x61, 0x6c, 0x2f, 0x64, 0x65, 0x6e, 0x73, 0x65, 0x5f, 0x31, 0x37, 0x2f,
  0x4d, 0x61, 0x74, 0x4d, 0x75, 0x6c, 0x00, 0x00, 0x54, 0xa3, 0xff, 0xff,
  0x5e, 0xa4, 0xff, 0xff, 0x04, 0x00, 0x00, 0x00, 0x84, 0x04, 0x00, 0x00,
  0xf7, 0x01, 0xa0, 0x3d, 0x3e, 0xbe, 0xa5, 0x3e, 0x7c, 0x6c, 0x83, 0x3d,
  0x6a, 0x5a, 0x38, 0xbe, 0x74, 0x76, 0x99, 0xbe, 0xef, 0x0c, 0xf7, 0xbd,
  0xd9, 0xca, 0x45, 0xbd, 0x7d, 0x75, 0x7d, 0xbe, 0xdb, 0x3c, 0x87, 0xbe,
  0xc9, 0x39, 0xa9, 0xbe, 0xba, 0x64, 0x25, 0x3e, 0x45, 0x78, 0xaa, 0x3d,
  0xba, 0x2a, 0x37, 0x3e, 0xa9, 0x78, 0xb0, 0x3e, 0xd2, 0xc0, 0xa5, 0x3d,
  0xac, 0x80, 0xbd, 0xbd, 0xb4, 0xa8, 0xa4, 0x3e, 0x12, 0xab, 0xe9, 0xbe,
  0xdf, 0xe0, 0x96, 0x3d, 0x1d, 0x9e, 0x63, 0x3d, 0x8d, 0xbb, 0x36, 0xbf,
  0x8a, 0xec, 0x6f, 0xbe, 0x16, 0xc4, 0x91, 0x3d, 0x3c, 0x9c, 0xc8, 0x3e,
  0xe6, 0x7f, 0x9c, 0x3e, 0x38, 0x4c, 0x1b, 0x3e, 0x7a, 0x38, 0xe6, 0xbe,
  0xec, 0x5a, 0x15, 0xbf, 0x46, 0x65, 0x05, 0xbf, 0x6b, 0x96, 0xd1, 0xbe,
  0xbc, 0x46, 0x0a, 0xbf, 0x39, 0x88, 0x9f, 0xbe, 0xea, 0x73, 0x22, 0xbf,
  0xcf, 0x7e, 0xe9, 0xbd, 0xe5, 0x94, 0xf9, 0xbc, 0x40, 0x6a, 0x99, 0xbd,
  0x28, 0x46, 0x8d, 0xbe, 0x91, 0x6c, 0x04, 0x3f, 0x2c, 0x3d, 0xa4, 0xbe,
  0x4d, 0xd3, 0xb0, 0xbe, 0x8b, 0x5e, 0x5b, 0xbe, 0x99, 0xc7, 0xac, 0x3e,
  0xab, 0xba, 0xa3, 0x3e, 0x42, 0xf0, 0xad, 0x3e, 0x52, 0x67, 0x98, 0xbe,
  0xbb, 0xef, 0x22, 0x3f, 0x0e, 0x8f, 0xb7, 0x3e, 0x4b, 0x69, 0x02, 0x3e,
  0x53, 0x7f, 0x2a, 0x3e, 0xdc, 0xf1, 0xdc, 0xbe, 0x74, 0xc2, 0xb5, 0x3e,
  0x51, 0xae, 0x57, 0xbd, 0x84, 0x1d, 0x95, 0x3d, 0x31, 0xf7, 0xa4, 0xbd,
  0x64, 0x3f, 0x2f, 0xbe, 0xbf, 0x9a, 0x61, 0xbc, 0x82, 0xbe, 0x68, 0x3e,
  0xfe, 0xf8, 0x32, 0xbd, 0xbe, 0xab, 0x75, 0x3e, 0x78, 0x1a, 0xe4, 0xbd,
  0x73, 0x3b, 0xe3, 0x3d, 0x1a, 0x56, 0xf5, 0x3d, 0x54, 0x20, 0x7c, 0xbd,
  0x8a, 0x34, 0xaa, 0x3d, 0x65, 0xfc, 0xb1, 0xbe, 0x83, 0xd3, 0xb4, 0xbe,
  0x18, 0x00, 0xed, 0x3d, 0x45, 0x55, 0xb9, 0xbe, 0x24, 0x9f, 0x40, 0xbd,
  0xe6, 0x62, 0x6a, 0xbe, 0xef, 0xc6, 0xb2, 0x3d, 0x5a, 0x3c, 0xcd, 0x3e,
  0x4b, 0x8a, 0xb4, 0xbe, 0x9c, 0x26, 0xb3, 0x3d, 0x5e, 0xb5, 0x4b, 0xbd,
  0x0d, 0xc6, 0x1f, 0xbe, 0x07, 0x24, 0xa1, 0xbe, 0x9f, 0x64, 0x79, 0x3d,
  0x8a, 0xc5, 0x16, 0xbe, 0x1d, 0x9b, 0x3f, 0x3e, 0x61, 0xe3, 0xb2, 0x3e,
  0x5d, 0xb5, 0x3c, 0xbe, 0x38, 0x42, 0x4d, 0xbe, 0xf5, 0x54, 0x74, 0x3e,
  0xe0, 0x64, 0x26, 0xbe, 0x47, 0xe7, 0xc0, 0xbe, 0x1d, 0x73, 0x14, 0xbe,
  0xaa, 0x83, 0x82, 0xbd, 0xfb, 0x2c, 0xe5, 0xbe, 0x24, 0x76, 0x19, 0xbf,
  0x01, 0x08, 0x91, 0x3e, 0x52, 0x39, 0x02, 0xbe, 0xe0, 0xbb, 0x0a, 0x3f,
  0x22, 0xab, 0x89, 0x3e, 0x92, 0xc8, 0x0c, 0xbd, 0x17, 0x27, 0x24, 0xbe,
  0xee, 0x28, 0x0f, 0xbf, 0xe2, 0x88, 0xcb, 0xbe, 0xae, 0xf8, 0x60, 0x3c,
  0x80, 0x50, 0x84, 0xbe, 0x05, 0x1d, 0xf0, 0xbd, 0xd3, 0x82, 0x03, 0xbf,
  0x4c, 0x41, 0xb3, 0x3c, 0x91, 0x2d, 0xab, 0x3e, 0xd9, 0x7a, 0x86, 0x3e,
  0x44, 0xa2, 0xf1, 0x3d, 0xc0, 0x9c, 0xdb, 0xbd, 0x1e, 0x79, 0x8f, 0xbc,
  0x17, 0x33, 0x12, 0xbd, 0x01, 0x68, 0xca, 0xbd, 0x47, 0x6f, 0x8d, 0xbe,
  0x73, 0xd3, 0x82, 0x3e, 0xbb, 0xe5, 0xb0, 0xbd, 0x93, 0xaf, 0x73, 0x3e,
  0xad, 0x4c, 0x0e, 0x3e, 0x87, 0x15, 0x54, 0x3e, 0x0f, 0x51, 0x01, 0x3e,
  0x0c, 0x5d, 0x90, 0x3e, 0xb6, 0x2a, 0x91, 0xbe, 0x70, 0xa7, 0xc0, 0xbe,
  0x2c, 0xb5, 0xe2, 0x3d, 0xa0, 0x1f, 0x12, 0x3d, 0x13, 0x69, 0x03, 0xbd,
  0xfe, 0xb8, 0xc3, 0xbc, 0xf3, 0xd3, 0x4c, 0x3e, 0xe2, 0x6e, 0x43, 0xbe,
  0xa2, 0xbc, 0xb3, 0x3e, 0x9a, 0x72, 0x3b, 0x3c, 0x88, 0x18, 0x1c, 0x3b,
  0xae, 0xa3, 0x40, 0xbe, 0x13, 0x98, 0xbe, 0xbe, 0x04, 0x9e, 0x5d, 0xba,
  0x1b, 0xcb, 0x79, 0x3e, 0x37, 0x69, 0x98, 0xbe, 0x83, 0xb4, 0x29, 0x3d,
  0xca, 0xe1, 0x33, 0x3e, 0x9f, 0x9e, 0xc5, 0xbe, 0xe0, 0xd9, 0x3d, 0xbe,
  0xd4, 0xe2, 0x0b, 0x3e, 0x14, 0xd3, 0x0b, 0xbf, 0xff, 0x3f, 0x3f, 0xbe,
  0x47, 0x05, 0x2b, 0xbe, 0xda, 0x4f, 0x8e, 0x3e, 0x4c, 0x67, 0x14, 0xbf,
  0xb0, 0x48, 0x30, 0xbe, 0x78, 0xdc, 0x75, 0x3d, 0x94, 0x14, 0xd1, 0xbe,
  0x73, 0xde, 0xd7, 0xbd, 0xe3, 0x8f, 0x20, 0xbf, 0x5a, 0x3b, 0x94, 0xbe,
  0x64, 0xc7, 0x42, 0xbf, 0xc2, 0x20, 0x30, 0xbf, 0xa2, 0x91, 0x31, 0x3d,
  0x6d, 0x88, 0x3c, 0xbe, 0x74, 0xde, 0x89, 0xbe, 0xa7, 0xaf, 0x42, 0xbe,
  0x1d, 0xfd, 0x18, 0x3e, 0x6e, 0xb7, 0xa4, 0xbe, 0x71, 0x8b, 0xb9, 0x3d,
  0x0a, 0x45, 0x2d, 0x3d, 0x44, 0xe3, 0x92, 0xbe, 0x71, 0x78, 0x04, 0xbf,
  0xc6, 0x15, 0x12, 0x3b, 0x56, 0x1b, 0xb6, 0xbe, 0xa5, 0x38, 0x1a, 0x3f,
  0x3f, 0xc4, 0xd9, 0xbd, 0xf3, 0x8b, 0x28, 0xbe, 0x0e, 0xd6, 0x15, 0xbf,
  0x55, 0x0a, 0x00, 0xbe, 0x32, 0xc2, 0xf9, 0xbe, 0x36, 0xdc, 0x58, 0x3d,
  0x03, 0xfa, 0x92, 0xbe, 0x1b, 0x71, 0x2e, 0x3e, 0x5a, 0xe0, 0x11, 0xbe,
  0x7a, 0xfd, 0x46, 0x3e, 0xbc, 0x1d, 0x76, 0xbe, 0x77, 0x2e, 0xbc, 0xbd,
  0x91, 0xc2, 0x27, 0xbe, 0x40, 0x7b, 0xac, 0xbe, 0x24, 0x6b, 0xeb, 0x3d,
  0x0a, 0x24, 0x8e, 0x3c, 0xd4, 0xd5, 0x8f, 0x3d, 0x1b, 0xac, 0xbb, 0x3e,
  0x0e, 0xac, 0xdb, 0x3d, 0xcd, 0x3b, 0xe2, 0x3d, 0xfa, 0x21, 0x98, 0x3b,
  0x51, 0x78, 0xde, 0xbd, 0x06, 0x12, 0xb8, 0xbe, 0x2d, 0x96, 0x8a, 0xbd,
  0x5b, 0x34, 0x43, 0x3e, 0x27, 0x63, 0xe6, 0x3a, 0x40, 0x4e, 0x98, 0x3d,
  0x13, 0x44, 0xf5, 0xbe, 0x2e, 0x54, 0x0a, 0xbd, 0x75, 0x1f, 0x74, 0x3e,
  0xaa, 0x1e, 0x71, 0x3d, 0x75, 0x11, 0x0e, 0x3e, 0x3b, 0x6b, 0xd9, 0xbd,
  0x0d, 0x54, 0xf1, 0xbe, 0xbb, 0x8a, 0x20, 0x3e, 0x82, 0x97, 0x0d, 0x3e,
  0x6b, 0xba, 0x29, 0xbe, 0xff, 0xf3, 0x67, 0x3e, 0xde, 0xac, 0x65, 0xbd,
  0xa8, 0x2c, 0x38, 0x3d, 0x7a, 0xb4, 0xbc, 0x3d, 0xff, 0x89, 0x66, 0x3d,
  0x72, 0x29, 0x22, 0xbf, 0x95, 0xab, 0x74, 0xbd, 0x81, 0x96, 0x3f, 0xbf,
  0x1e, 0x3b, 0x6c, 0x3d, 0xe4, 0x96, 0xc6, 0x3a, 0x43, 0x65, 0xe2, 0x3e,
  0x43, 0x7e, 0x19, 0xbf, 0xcd, 0xa7, 0x23, 0xbf, 0x5d, 0x92, 0x61, 0xbf,
  0x4c, 0x10, 0x00, 0xbf, 0x68, 0x88, 0xba, 0x3e, 0x78, 0x09, 0xf5, 0xbc,
  0x76, 0x3b, 0xc0, 0x3e, 0xe2, 0x8b, 0x8b, 0x3c, 0xa5, 0x1d, 0x02, 0x3f,
  0x4d, 0x30, 0xa7, 0xbe, 0x83, 0xd4, 0x04, 0x3f, 0x48, 0x8c, 0x3b, 0x3f,
  0x3f, 0xb2, 0x43, 0x3e, 0xb3, 0xb6, 0xd5, 0xbe, 0xfe, 0xd5, 0x01, 0xbe,
  0xad, 0x78, 0x83, 0xbe, 0xd5, 0x04, 0x0d, 0x3e, 0x49, 0x16, 0x32, 0x3e,
  0xe3, 0xb9, 0x5f, 0xbe, 0x87, 0x48, 0xfc, 0xbd, 0x0d, 0x22, 0x20, 0x3f,
  0x8f, 0x02, 0x19, 0xbe, 0xa0, 0x35, 0xcb, 0xbb, 0xa9, 0xac, 0xf4, 0xbd,
  0xbc, 0xaf, 0x91, 0x3b, 0xd9, 0xbc, 0xc3, 0xbe, 0x22, 0x20, 0x92, 0xbd,
  0x9b, 0xe5, 0x4a, 0xbd, 0xec, 0xa8, 0xc1, 0xbd, 0x62, 0x0b, 0x18, 0xbf,
  0x61, 0x45, 0x09, 0xbf, 0xc0, 0xb0, 0x85, 0xb8, 0xef, 0x51, 0x8c, 0xbd,
  0x15, 0xc2, 0x41, 0x3e, 0x99, 0x03, 0x7c, 0xbe, 0xc0, 0x1d, 0x6e, 0xbe,
  0x28, 0xc1, 0x57, 0xbf, 0x9f, 0x52, 0xfc, 0xbe, 0x29, 0x8e, 0x43, 0x3e,
  0x1c, 0x5c, 0x24, 0xbe, 0xd2, 0x70, 0x51, 0xbd, 0xf1, 0x79, 0x06, 0xbf,
  0x63, 0xe0, 0x39, 0xbd, 0xd7, 0x80, 0x1c, 0x3e, 0x6b, 0xaf, 0x30, 0xbe,
  0xae, 0x5e, 0x5f, 0xbe, 0x6b, 0x74, 0x91, 0x3d, 0x98, 0x9f, 0x19, 0xbe,
  0xd9, 0xed, 0x80, 0xbc, 0x8f, 0xba, 0x80, 0x3e, 0x9c, 0xd2, 0xe4, 0xbe,
  0x00, 0x80, 0x1c, 0x3e, 0x53, 0x4d, 0xe4, 0x3d, 0xd6, 0x95, 0xab, 0x3d,
  0x15, 0xae, 0x94, 0x3e, 0xa9, 0x8b, 0x09, 0xbc, 0x07, 0x07, 0x9b, 0x3d,
  0x89, 0xcd, 0x92, 0x3e, 0xfc, 0x67, 0x3e, 0xbe, 0xec, 0x2e, 0xc8, 0xbe,
  0x9e, 0xe0, 0xa9, 0x3e, 0x06, 0x4e, 0x48, 0xbe, 0x34, 0xd7, 0xf8, 0x3c,
  0xe2, 0xe8, 0xf1, 0x3d, 0x9a, 0x91, 0xc2, 0x3b, 0x33, 0xc7, 0x97, 0xbe,
  0xed, 0xc9, 0x14, 0xbf, 0x6d, 0xf8, 0x29, 0x3d, 0x74, 0x04, 0xe7, 0xbb,
  0xc5, 0x8f, 0x20, 0x3e, 0xc2, 0x80, 0x86, 0xbd, 0x14, 0xbb, 0x1a, 0xbe,
  0x8e, 0xb2, 0xa6, 0xbe, 0x98, 0xc9, 0x20, 0xbe, 0x4c, 0x39, 0xe0, 0xbd,
  0x14, 0xd4, 0x83, 0x3e, 0x96, 0xa8, 0xff, 0xff, 0x10, 0x00, 0x00, 0x00,
  0x26, 0x00, 0x00, 0x00, 0x14, 0x00, 0x00, 0x00, 0x30, 0x00, 0x00, 0x00,
  0x02, 0x00, 0x00, 0x00, 0x11, 0x00, 0x00, 0x00, 0x11, 0x00, 0x00, 0x00,
  0x1a, 0x00, 0x00, 0x00, 0x73, 0x65, 0x71, 0x75, 0x65, 0x6e, 0x74, 0x69,
  0x61, 0x6c, 0x2f, 0x64, 0x65, 0x6e, 0x73, 0x65, 0x5f, 0x31, 0x36, 0x2f,
  0x4d, 0x61, 0x74, 0x4d, 0x75, 0x6c, 0x00, 0x00, 0x28, 0xa8, 0xff, 0xff,
  0x32, 0xa9, 0xff, 0xff, 0x04, 0x00, 0x00, 0x00, 0x84, 0x04, 0x00, 0x00,
  0xb9, 0xdf, 0x4c, 0x3f, 0x9e, 0xa4, 0x44, 0xbd, 0x88, 0x82, 0x25, 0xbe,
  0x4e, 0xb3, 0x8d, 0xbd, 0xc0, 0xfc, 0x0e, 0x3f, 0xc9, 0x13, 0x1a, 0x3f,
  0x7b, 0x7f, 0x78, 0xbe, 0x04, 0x65, 0x92, 0xbd, 0xb5, 0x66, 0xd9, 0x3d,
  0x28, 0xe7, 0x94, 0x3e, 0x93, 0xa4, 0x79, 0x3e, 0x5c, 0x64, 0xd6, 0x3e,
  0x70, 0x51, 0xac, 0xbe, 0x61, 0xff, 0xa7, 0x3c, 0x93, 0xbe, 0xbd, 0x3e,
  0xe8, 0xd2, 0x0c, 0xbf, 0xd0, 0xb4, 0x86, 0x3d, 0xaf, 0x65, 0x8d, 0x3d,
  0x59, 0xff, 0xed, 0x3d, 0x66, 0xb2, 0xe2, 0x3d, 0xa4, 0x3d, 0x8d, 0xbd,
  0xc4, 0x19, 0x66, 0xbc, 0x46, 0xef, 0xbb, 0x3d, 0xa7, 0x6c, 0xb2, 0x3e,
  0x97, 0x73, 0x3c, 0xbe, 0x2a, 0x0a, 0xd9, 0xbe, 0x7c, 0xa1, 0x98, 0x3e,
  0xa7, 0x3a, 0xf1, 0x3d, 0x84, 0x2b, 0xc5, 0xbd, 0xa1, 0x5d, 0x7a, 0xbe,
  0x22, 0x3e, 0x90, 0xbe, 0xcd, 0xdd, 0x90, 0xbd, 0x7b, 0x61, 0xce, 0xbd,
  0xc8, 0x90, 0x8d, 0xbe, 0x89, 0xf6, 0xe8, 0x3e, 0x63, 0xbe, 0x01, 0xbe,
  0xda, 0xf9, 0xaf, 0x3e, 0xc2, 0x57, 0x5e, 0x3e, 0xa4, 0xd4, 0x09, 0x3e,
  0xda, 0x89, 0xd9, 0x3d, 0x11, 0xdb, 0xae, 0x3e, 0x0c, 0x1f, 0xb4, 0xbd,
  0x01, 0x3c, 0x12, 0x3e, 0x28, 0xa7, 0xdb, 0x3e, 0xd8, 0xd6, 0x86, 0x3d,
  0xbe, 0x01, 0x02, 0x3e, 0x60, 0xf9, 0x33, 0xbe, 0x1a, 0xb4, 0xab, 0x3d,
  0x80, 0x67, 0x87, 0x3e, 0x7c, 0x92, 0xa1, 0x3d, 0xe4, 0xc8, 0x3a, 0x3d,
  0x04, 0xf2, 0x4c, 0x3f, 0x06, 0x96, 0x33, 0xbf, 0x64, 0x7c, 0x5b, 0x3d,
  0x1c, 0xe2, 0x04, 0xbe, 0x61, 0x93, 0x30, 0x3f, 0x3d, 0xb6, 0x39, 0x3f,
  0x4a, 0x2f, 0x69, 0x3d, 0x1d, 0x30, 0xef, 0x3d, 0xae, 0x45, 0x81, 0x3e,
  0x98, 0xd8, 0x00, 0x3e, 0x9a, 0xc4, 0x3c, 0xbe, 0x32, 0xaa, 0xd2, 0x3e,
  0x21, 0x4d, 0x9c, 0x3e, 0x62, 0xb9, 0xd4, 0x3d, 0x6d, 0x07, 0xdb, 0x3e,
  0x86, 0xaa, 0xf2, 0xbe, 0x04, 0x1c, 0xb8, 0xbe, 0x28, 0xa2, 0xa3, 0x3e,
  0x1b, 0xcf, 0x77, 0xbe, 0x1d, 0x78, 0x5e, 0x3e, 0xf7, 0x9b, 0xde, 0x3d,
  0x8b, 0xc3, 0x66, 0x3e, 0xf1, 0x6f, 0xca, 0x3d, 0x95, 0x77, 0xd7, 0xbe,
  0x4e, 0x8b, 0x39, 0xbf, 0xc7, 0xf6, 0x86, 0xbe, 0x85, 0x9d, 0xbd, 0x3e,
  0xdd, 0x84, 0xcc, 0xbe, 0xc2, 0xbc, 0x6a, 0xbe, 0x75, 0xc6, 0x8f, 0x3e,
  0x14, 0x1c, 0x95, 0xbe, 0x8d, 0xe3, 0x3f, 0x3b, 0x0f, 0x57, 0x17, 0x3e,
  0x27, 0xd9, 0x53, 0xbe, 0xb5, 0x49, 0x1f, 0x3e, 0xc2, 0x54, 0x88, 0xbd,
  0xe1, 0x58, 0xd5, 0x3e, 0x70, 0xfb, 0x6f, 0x3d, 0x4b, 0xa3, 0xd6, 0x3d,
  0x03, 0x80, 0x91, 0xbe, 0x46, 0xf8, 0x8c, 0xbe, 0x1e, 0x75, 0xa8, 0xbd,
  0x35, 0xf4, 0xf6, 0x3d, 0x8a, 0xa6, 0x7c, 0xbe, 0xe3, 0xc2, 0x77, 0xbe,
  0x6d, 0x42, 0x97, 0xbe, 0x25, 0xde, 0x8a, 0xbe, 0x30, 0x1a, 0x4f, 0xbe,
  0x36, 0x11, 0x6e, 0x3e, 0x36, 0x72, 0x8b, 0x3d, 0xbd, 0x74, 0xa8, 0xbe,
  0xdf, 0x2e, 0x86, 0xbf, 0x70, 0x38, 0xda, 0x3d, 0x53, 0x0f, 0x0b, 0xbf,
  0x51, 0xd5, 0x43, 0xbe, 0x85, 0xd7, 0x15, 0xbf, 0xe5, 0x6d, 0xd9, 0xbe,
  0xce, 0xab, 0x73, 0xbe, 0x3c, 0xea, 0x8a, 0x3e, 0x56, 0xfa, 0x14, 0xbe,
  0xe6, 0x79, 0x84, 0xbe, 0x87, 0x74, 0x63, 0xbe, 0xf2, 0x7c, 0x85, 0x3e,
  0x00, 0x81, 0xa8, 0xbf, 0xbe, 0x04, 0x86, 0xbf, 0xd6, 0x52, 0xda, 0xbe,
  0xea, 0x32, 0x61, 0x3e, 0xb8, 0x2d, 0xb2, 0xbe, 0x6c, 0xf6, 0x8e, 0x3c,
  0xa2, 0xc3, 0x22, 0xbe, 0x69, 0x48, 0xb8, 0xbe, 0x40, 0xad, 0x32, 0x3c,
  0x08, 0x0c, 0xc5, 0xbc, 0x75, 0x27, 0x5e, 0x3d, 0xd8, 0xd4, 0x92, 0xbe,
  0xee, 0x35, 0x82, 0xbe, 0x8c, 0xc6, 0x0a, 0xbd, 0xff, 0xec, 0xc9, 0xbe,
  0x20, 0x55, 0xd5, 0xbd, 0xee, 0xb2, 0xd8, 0xbe, 0x21, 0xa4, 0xbc, 0x3d,
  0x2a, 0xc0, 0x9e, 0xbe, 0x1f, 0x54, 0x9b, 0xbe, 0xa2, 0x36, 0x67, 0xbe,
  0x54, 0x5f, 0xf6, 0x3a, 0x46, 0x7f, 0x99, 0x3c, 0x92, 0x27, 0x6f, 0xbe,
  0xf7, 0xc0, 0xf8, 0x3d, 0x6e, 0x34, 0xe7, 0x3c, 0x3c, 0x0d, 0x3c, 0xbe,
  0xdd, 0x06, 0xb6, 0xbd, 0xa0, 0xbb, 0x14, 0x3c, 0xf6, 0xea, 0xc1, 0xbe,
  0x5d, 0xc7, 0x65, 0x3e, 0x80, 0xb9, 0x97, 0x3d, 0x3c, 0x32, 0xd8, 0xbd,
  0xbe, 0x2b, 0x6a, 0x3e, 0xa2, 0x02, 0x97, 0xbe, 0x26, 0xce, 0xb0, 0xbe,
  0xe6, 0x37, 0x00, 0xbf, 0x63, 0xf0, 0x99, 0xbe, 0x73, 0xeb, 0x61, 0xbe,
  0x38, 0xe9, 0xf9, 0x3e, 0x0b, 0x6a, 0x0c, 0xbb, 0xf2, 0x99, 0x52, 0xbe,
  0xb4, 0xd9, 0x7a, 0x3e, 0x38, 0xe6, 0x66, 0x3f, 0x1f, 0x16, 0xf9, 0xbc,
  0x5c, 0x66, 0xb4, 0xbd, 0xff, 0x9b, 0x05, 0xbf, 0x04, 0x03, 0x6a, 0xbe,
  0x6d, 0xde, 0xde, 0x3e, 0xa9, 0x7e, 0x9b, 0x3e, 0xd8, 0x02, 0x8e, 0x3e,
  0x3c, 0x90, 0x20, 0xbd, 0xba, 0x38, 0x45, 0xbd, 0xb6, 0x9c, 0xaa, 0xbd,
  0x2e, 0x55, 0xef, 0xbd, 0xde, 0x68, 0x55, 0xbc, 0x91, 0x50, 0x96, 0xbe,
  0x95, 0x19, 0xc7, 0xbe, 0xf6, 0x65, 0xb8, 0x3e, 0x27, 0x21, 0x14, 0x3d,
  0x91, 0x33, 0x26, 0xbf, 0x26, 0x95, 0x42, 0xbe, 0xd9, 0x9e, 0x1a, 0x3e,
  0xbe, 0x2c, 0x58, 0xbe, 0x40, 0x22, 0x17, 0x3d, 0xc8, 0xe6, 0xea, 0x3e,
  0x73, 0xa0, 0x68, 0x3d, 0xa7, 0x92, 0x87, 0xbe, 0xa6, 0xb7, 0x8d, 0x3e,
  0xe2, 0x2a, 0x8d, 0x3e, 0xf1, 0x52, 0xad, 0x3d, 0xe5, 0xd4, 0x92, 0xbc,
  0x7c, 0xc8, 0x5e, 0xbe, 0x58, 0xd1, 0xde, 0x3e, 0x6d, 0xb4, 0xbe, 0xbe,
  0x04, 0x64, 0xab, 0xbe, 0x3a, 0xcc, 0xba, 0xbc, 0x26, 0x45, 0x98, 0x3e,
  0x8c, 0x4a, 0xb7, 0xbd, 0x03, 0xac, 0xc2, 0x3e, 0xe9, 0x08, 0x36, 0xbf,
  0x5f, 0x25, 0x28, 0x3e, 0x64, 0xaf, 0x88, 0xbe, 0x80, 0x71, 0xb6, 0x3c,
  0xf7, 0x0a, 0x0c, 0x3f, 0x06, 0x59, 0x54, 0xbe, 0xf2, 0x67, 0x6a, 0xbd,
  0xe6, 0x0e, 0x98, 0x3e, 0x01, 0xaa, 0x47, 0xbd, 0xc9, 0x29, 0x03, 0xbe,
  0x86, 0x81, 0x2a, 0x3f, 0x93, 0xbb, 0x11, 0xbf, 0xfb, 0x2d, 0x5e, 0x3e,
  0x9d, 0xa3, 0xbc, 0xbd, 0xbd, 0xd4, 0x42, 0x3f, 0x02, 0xfc, 0xed, 0x3e,
  0xf8, 0x9e, 0x63, 0xbd, 0xef, 0x43, 0x0d, 0xbe, 0xca, 0xed, 0x12, 0xbe,
  0x49, 0x07, 0x0d, 0x3f, 0xd5, 0x1e, 0x3c, 0x3e, 0x42, 0x7c, 0x3d, 0x3e,
  0xce, 0xa1, 0x9e, 0x3e, 0x7b, 0xa1, 0x20, 0x3f, 0x89, 0x7b, 0xad, 0x3e,
  0x4a, 0x13, 0x9f, 0x3d, 0x03, 0xed, 0xe9, 0xbe, 0x02, 0x81, 0xe0, 0x3c,
  0xf4, 0xd7, 0xfc, 0x3b, 0x20, 0x83, 0x65, 0xbc, 0xe4, 0x9b, 0x1e, 0x3d,
  0x74, 0x1a, 0x13, 0x3d, 0xd2, 0x4d, 0x98, 0xbb, 0x87, 0x97, 0x77, 0xbd,
  0x9f, 0x4c, 0xaf, 0xbe, 0x82, 0xd2, 0x45, 0xbd, 0x6b, 0x0d, 0x31, 0x3d,
  0xf8, 0x68, 0x0e, 0x3e, 0xa0, 0x04, 0x5c, 0x3e, 0x0b, 0x54, 0x05, 0x3e,
  0x51, 0x3b, 0xfb, 0x3d, 0xb4, 0x63, 0x88, 0x3e, 0xf1, 0x1b, 0x3b, 0xbe,
  0xdf, 0x5c, 0x0a, 0xbe, 0x6c, 0x03, 0x5f, 0x3e, 0xc7, 0x61, 0x0b, 0x3e,
  0xcc, 0xee, 0xd6, 0xbe, 0x80, 0x4c, 0x3e, 0xbe, 0x85, 0xee, 0xd7, 0x3d,
  0x4b, 0x32, 0xaa, 0xbe, 0x79, 0x14, 0x8b, 0x3e, 0xb8, 0xe2, 0x14, 0x3d,
  0xa0, 0xa5, 0x19, 0xb9, 0x3a, 0x4d, 0x65, 0x3c, 0xec, 0xe7, 0xef, 0x3d,
  0xfc, 0x07, 0xf3, 0xbe, 0xe3, 0x04, 0x2d, 0xbe, 0x06, 0x2b, 0xc2, 0x3d,
  0x90, 0x77, 0x79, 0xba, 0x54, 0x23, 0xb6, 0xbe, 0xdb, 0xa0, 0x2a, 0xbe,
  0x27, 0xec, 0x98, 0x3e, 0x42, 0xee, 0xd3, 0xbe, 0xe7, 0x0a, 0x43, 0xbe,
  0xfd, 0x56, 0x45, 0x3e, 0xc6, 0xa7, 0x0c, 0x3d, 0xe1, 0x81, 0x17, 0xbe,
  0x28, 0x8f, 0x9b, 0x3e, 0x2a, 0xaa, 0xea, 0xbd, 0x40, 0x36, 0x8e, 0x3e,
  0xf2, 0x17, 0x24, 0x3d, 0x60, 0x01, 0x00, 0x3d, 0xb3, 0xec, 0xa0, 0x3e,
  0x8e, 0x92, 0x22, 0xbc, 0x1a, 0x31, 0xd6, 0x3e, 0x1d, 0xa0, 0xa4, 0x3e,
  0x09, 0xdd, 0x71, 0xbd, 0x86, 0xba, 0x0b, 0xbe, 0xf0, 0x1d, 0x94, 0x3d,
  0x6f, 0x54, 0x82, 0x3c, 0xda, 0x30, 0x26, 0x3e, 0xcb, 0xad, 0xb4, 0xbd,
  0xe2, 0x51, 0x85, 0x3e, 0x83, 0xea, 0xcd, 0x3e, 0xfc, 0x41, 0x21, 0xbd,
  0xaa, 0x84, 0x8a, 0xbe, 0xc9, 0x77, 0x95, 0xbe, 0x82, 0x35, 0xa7, 0x3e,
  0x2b, 0xee, 0x45, 0xbe, 0xe4, 0x8e, 0xc6, 0x3d, 0x29, 0xdd, 0xa1, 0xbe,
  0x6a, 0xb5, 0x8c, 0x3e, 0x9d, 0xc2, 0x71, 0x3e, 0xe0, 0x82, 0x95, 0x3d,
  0x07, 0xad, 0xaf, 0xbd, 0x6a, 0xad, 0xff, 0xff, 0x10, 0x00, 0x00, 0x00,
  0x25, 0x00, 0x00, 0x00, 0x14, 0x00, 0x00, 0x00, 0x30, 0x00, 0x00, 0x00,
  0x02, 0x00, 0x00, 0x00, 0x11, 0x00, 0x00, 0x00, 0x11, 0x00, 0x00, 0x00,
  0x1a, 0x00, 0x00, 0x00, 0x73, 0x65, 0x71, 0x75, 0x65, 0x6e, 0x74, 0x69,
  0x61, 0x6c, 0x2f, 0x64, 0x65, 0x6e, 0x73, 0x65, 0x5f, 0x31, 0x35, 0x2f,
  0x4d, 0x61, 0x74, 0x4d, 0x75, 0x6c, 0x00, 0x00, 0xfc, 0xac, 0xff, 0xff,
  0x06, 0xae, 0xff, 0xff, 0x04, 0x00, 0x00, 0x00, 0x84, 0x04, 0x00, 0x00,
  0x1e, 0x23, 0x52, 0x3f, 0x89, 0x6f, 0x35, 0xbd, 0x99, 0xdd, 0x27, 0x3e,
  0x4c, 0x49, 0x06, 0x3f, 0xef, 0x95, 0x46, 0xbe, 0xea, 0x81, 0x7a, 0x3e,
  0x0a, 0x59, 0x1e, 0x3f, 0x1b, 0x84, 0xe1, 0x3e, 0x1b, 0x46, 0xbd, 0x3d,
  0x6e, 0xb9, 0x70, 0x3e, 0x98, 0x66, 0xa7, 0xbe, 0xe7, 0x5d, 0x71, 0x3d,
  0xef, 0x61, 0x6c, 0x3e, 0x66, 0x9a, 0xc6, 0x3d, 0xa9, 0x5a, 0x84, 0x3e,
  0xad, 0x95, 0x72, 0x3f, 0x49, 0x78, 0x3b, 0x3f, 0x12, 0x6d, 0xbc, 0xbe,
  0x79, 0x97, 0x5f, 0x3e, 0x2e, 0xf2, 0xb4, 0xbe, 0xfb, 0x69, 0xcc, 0x3d,
  0x5c, 0xc4, 0xe8, 0xbe, 0x6e, 0x82, 0x81, 0xbe, 0x7c, 0x09, 0x1c, 0xbd,
  0x31, 0x52, 0xe8, 0xbe, 0xd1, 0x09, 0xae, 0xbd, 0x36, 0xb9, 0x9c, 0xbe,
  0xf8, 0xf7, 0x9b, 0xbb, 0x85, 0x9e, 0x46, 0x3e, 0x87, 0x62, 0x7f, 0xbe,
  0xcd, 0xec, 0xd8, 0xbe, 0xf8, 0xe8, 0x20, 0xbe, 0x1c, 0x78, 0x88, 0x3d,
  0x2c, 0xfe, 0xb4, 0xbe, 0x44, 0xcb, 0x4d, 0xbe, 0x67, 0x68, 0x36, 0xbe,
  0x03, 0xd6, 0x7b, 0xbe, 0xcd, 0xab, 0x81, 0xbe, 0xec, 0x56, 0x9f, 0xbd,
  0xd4, 0x39, 0x1a, 0xbe, 0xc0, 0x05, 0x3c, 0xbe, 0x1b, 0xe7, 0xdc, 0x3e,
  0x2f, 0x5c, 0x4c, 0xbd, 0x44, 0x00, 0x68, 0xbd, 0x65, 0x10, 0xb1, 0xbe,
  0x12, 0x8c, 0x16, 0x3e, 0xd9, 0xd7, 0x57, 0x3d, 0xbb, 0xa4, 0xf0, 0x3b,
  0x04, 0xa1, 0x28, 0xbd, 0x2c, 0x00, 0xcc, 0x3d, 0x1f, 0x95, 0x51, 0x3e,
  0xf2, 0x9a, 0x45, 0x3e, 0x38, 0xf2, 0xc1, 0xbd, 0x03, 0x56, 0xbb, 0xbd,
  0xfe, 0xb1, 0xb3, 0x3d, 0x75, 0x07, 0xda, 0xbe, 0xf0, 0x50, 0x4b, 0x3d,
  0x2a, 0x12, 0x08, 0x3d, 0x9a, 0x0a, 0x36, 0xbe, 0x65, 0x6b, 0x44, 0xbe,
  0x68, 0x8f, 0x80, 0xbe, 0xeb, 0x15, 0x47, 0x3d, 0x50, 0x9f, 0xaf, 0xbe,
  0x8a, 0xf9, 0x61, 0x3e, 0x8b, 0xf4, 0x30, 0xbe, 0x00, 0x43, 0xce, 0x3b,
  0x98, 0x6f, 0xa7, 0xbd, 0xa7, 0x42, 0x96, 0xbe, 0xcb, 0x41, 0xfb, 0x3e,
  0x07, 0xc4, 0xf1, 0x3e, 0x58, 0x12, 0x27, 0xbe, 0xf4, 0x06, 0x81, 0x3e,
  0x74, 0xb2, 0x84, 0xbe, 0xc1, 0x6f, 0x15, 0x3e, 0x62, 0x6f, 0x45, 0x3f,
  0xd9, 0x0e, 0x25, 0x3e, 0x69, 0x17, 0x8c, 0x3e, 0x50, 0x78, 0xec, 0x3d,
  0xe1, 0xf9, 0xb7, 0xbe, 0xd8, 0x5b, 0xa9, 0xbe, 0xde, 0x5c, 0x53, 0x3b,
  0x0b, 0x9e, 0x4b, 0x3e, 0x35, 0x72, 0xa6, 0x3e, 0xd5, 0x5e, 0x1d, 0x3f,
  0x53, 0x23, 0x50, 0x3f, 0x04, 0x69, 0xe8, 0x3e, 0xdf, 0xb3, 0xca, 0xbe,
  0xa9, 0x3d, 0x94, 0xbe, 0xa4, 0x92, 0x12, 0xbe, 0x0e, 0x1d, 0x1c, 0xbe,
  0x35, 0xa7, 0xae, 0x3d, 0xc0, 0xb6, 0xaf, 0x3e, 0x5a, 0x9e, 0xd7, 0x3e,
  0x8b, 0x9d, 0x82, 0xbe, 0x6d, 0xde, 0xcb, 0x3d, 0xfa, 0x65, 0x48, 0x3e,
  0x76, 0x15, 0xac, 0xbd, 0xa2, 0xb8, 0x32, 0x3d, 0xb0, 0xaa, 0x14, 0x3e,
  0x84, 0xec, 0xe2, 0xbd, 0x80, 0xd0, 0xd1, 0x3e, 0x9f, 0x99, 0xd4, 0x3e,
  0x83, 0xff, 0x4d, 0x3e, 0x0b, 0xa8, 0xd1, 0xbe, 0x44, 0x83, 0x17, 0xbe,
  0x62, 0x66, 0x7a, 0x3e, 0xb1, 0xcf, 0xdb, 0xbe, 0x3b, 0xfd, 0x2b, 0xbe,
  0xa8, 0x6a, 0xbd, 0xbe, 0xad, 0x12, 0xec, 0x3d, 0x01, 0x84, 0x85, 0x3e,
  0x9c, 0xbc, 0xb1, 0x3e, 0x1f, 0xc8, 0x25, 0x3e, 0xfb, 0xa9, 0xfd, 0x3d,
  0x97, 0xa3, 0x94, 0xbe, 0x7a, 0x0f, 0x07, 0xbe, 0xbf, 0x6b, 0xd3, 0xbe,
  0x2c, 0xbb, 0x8d, 0xbe, 0xd6, 0x66, 0xe1, 0xbc, 0xff, 0x98, 0xf9, 0x3a,
  0x45, 0xac, 0x99, 0x3e, 0xd0, 0x2f, 0xdb, 0xbc, 0x0e, 0x1e, 0xe1, 0xbe,
  0x74, 0xb7, 0x9a, 0xbe, 0x9e, 0x77, 0x9a, 0x3e, 0x12, 0xd0, 0xdf, 0xbe,
  0xad, 0x17, 0xea, 0xbe, 0xe5, 0x03, 0xa8, 0xbe, 0xaf, 0x1a, 0xdc, 0x3e,
  0x37, 0x10, 0x8d, 0x3e, 0x42, 0x67, 0xb4, 0x3b, 0x3f, 0x90, 0x41, 0x3e,
  0xf9, 0x7c, 0x15, 0xbf, 0x52, 0xf8, 0xb5, 0x3d, 0xa2, 0xcb, 0x9c, 0xbe,
  0x22, 0xcf, 0xce, 0x3e, 0xae, 0x37, 0xd8, 0xbd, 0x15, 0x1f, 0x9f, 0xbd,
  0x46, 0x69, 0x6b, 0xbe, 0x3e, 0xd0, 0x44, 0x3e, 0xbe, 0x2a, 0xf4, 0xbe,
  0x20, 0xb8, 0xbd, 0x3e, 0x1a, 0x1e, 0x2d, 0x3d, 0x43, 0xcf, 0x2f, 0x3e,
  0x0e, 0x7f, 0xc7, 0x3d, 0xc1, 0x74, 0x45, 0x3e, 0x8a, 0xcb, 0x86, 0xbe,
  0x1e, 0xa4, 0x0e, 0xbe, 0x5d, 0x6e, 0x14, 0x3e, 0x0b, 0xf8, 0x7b, 0xbe,
  0x4b, 0xd4, 0x84, 0x3e, 0xc4, 0x5f, 0xc4, 0x3d, 0x69, 0x8f, 0xa5, 0xbe,
  0x96, 0xdf, 0x14, 0x3e, 0x16, 0x09, 0x87, 0x3e, 0x49, 0x5b, 0xa4, 0xbe,
  0xa8, 0x46, 0x97, 0x3e, 0x1f, 0x79, 0x68, 0xbe, 0xc9, 0xa0, 0xbc, 0xbd,
  0x5a, 0x47, 0x5d, 0x3f, 0x9e, 0xa3, 0xdb, 0x3e, 0x27, 0x41, 0x25, 0xbe,
  0xc7, 0xb3, 0x66, 0x3e, 0x06, 0x96, 0x9a, 0xbe, 0x6e, 0xb3, 0x5f, 0xbd,
  0x67, 0x47, 0x2d, 0x3e, 0x49, 0xec, 0x16, 0x3e, 0x98, 0x28, 0xe3, 0x3e,
  0xf8, 0xbc, 0x6c, 0x3f, 0x41, 0x13, 0x34, 0x3f, 0xbe, 0x96, 0x20, 0x3d,
  0x08, 0x00, 0x59, 0x3d, 0x14, 0x39, 0xc8, 0xbc, 0x80, 0xcc, 0x30, 0xbe,
  0x79, 0x03, 0xf9, 0xbe, 0xb2, 0x37, 0x1e, 0x3e, 0x99, 0xd0, 0x36, 0xbe,
  0xd5, 0xf1, 0xcf, 0x3d, 0x1c, 0x59, 0xb9, 0xbe, 0x6f, 0x6d, 0x0a, 0xbe,
  0xee, 0x16, 0x3b, 0x3d, 0x1e, 0x57, 0xb8, 0xbd, 0x97, 0xfe, 0xbc, 0xbe,
  0xda, 0x24, 0xee, 0xbe, 0xd5, 0x8d, 0xbc, 0xbe, 0x04, 0x9b, 0x9e, 0x3d,
  0xe1, 0xff, 0x92, 0x3b, 0x36, 0xae, 0x86, 0x3f, 0x0c, 0x3d, 0x9f, 0x3e,
  0xad, 0x75, 0xbc, 0xbb, 0x26, 0xa2, 0x8f, 0x3e, 0x04, 0xbb, 0x36, 0xbf,
  0x2e, 0x14, 0xff, 0x3e, 0x14, 0x1b, 0x56, 0x3f, 0x1c, 0x91, 0xfc, 0x3d,
  0xe6, 0x96, 0xab, 0xbd, 0xb7, 0x0f, 0x44, 0x3e, 0x5f, 0x05, 0x30, 0x3e,
  0xbd, 0x08, 0x8b, 0x3e, 0xcf, 0x3a, 0xfa, 0x3e, 0x46, 0x00, 0x04, 0xbe,
  0xbf, 0x34, 0xfd, 0x3e, 0xa6, 0xb3, 0x9c, 0x3f, 0x5b, 0xaf, 0xa1, 0x3e,
  0x0f, 0xa0, 0x9d, 0x3e, 0x67, 0xe5, 0x59, 0xbd, 0x39, 0x73, 0x76, 0x3d,
  0x75, 0xa9, 0xc9, 0x3c, 0x6f, 0xb2, 0x7d, 0x3c, 0x08, 0x7e, 0x0b, 0xbe,
  0x4c, 0xd3, 0x25, 0xbd, 0x05, 0x77, 0x4a, 0x3e, 0x3d, 0xd6, 0x76, 0x3e,
  0x4e, 0x27, 0x83, 0x3e, 0xca, 0x73, 0xd7, 0x3d, 0xe3, 0xa6, 0x41, 0xbe,
  0xa3, 0x7b, 0x80, 0x3d, 0xfb, 0xb6, 0xa6, 0xbd, 0x4d, 0x6e, 0xcd, 0x3d,
  0x43, 0xab, 0x30, 0x3e, 0xb8, 0xf2, 0xdf, 0x3e, 0x7a, 0x0f, 0x9c, 0x3d,
  0xca, 0xe6, 0xa1, 0xbd, 0xd6, 0x17, 0xb5, 0xbb, 0x3b, 0xf6, 0x71, 0x3e,
  0x63, 0xbb, 0x03, 0xbe, 0x13, 0x35, 0xf3, 0x3e, 0xd4, 0xb1, 0x94, 0x3e,
  0xd9, 0xdc, 0x28, 0x3e, 0x01, 0xe6, 0xd4, 0xbd, 0xee, 0x73, 0x2d, 0xbd,
  0x9b, 0x69, 0xb4, 0xbd, 0x19, 0x67, 0x81, 0xbd, 0xe5, 0x4a, 0x92, 0x3e,
  0x9a, 0xbb, 0x48, 0x3e, 0x74, 0x4b, 0xa2, 0x3e, 0x98, 0xf4, 0xc2, 0x3d,
  0xcc, 0xf4, 0x88, 0x3e, 0x8c, 0x5e, 0xd9, 0x3e, 0xf7, 0x68, 0x5a, 0x3e,
  0x00, 0xf0, 0xa1, 0x3d, 0x5f, 0x7a, 0xa6, 0x3d, 0xef, 0x25, 0x32, 0xbe,
  0x7e, 0x4d, 0x87, 0x3e, 0x3a, 0x7a, 0x61, 0x3e, 0x3f, 0x41, 0xc2, 0x3c,
  0x66, 0x2b, 0xd3, 0xbe, 0x84, 0x63, 0xd2, 0xbb, 0x31, 0x1e, 0x7c, 0xbe,
  0xe9, 0x84, 0x86, 0xbe, 0x7b, 0x29, 0xdf, 0x3e, 0x1d, 0x4e, 0x6c, 0xbd,
  0xcf, 0xb9, 0x34, 0xbe, 0x19, 0x43, 0x30, 0x3f, 0x64, 0x4f, 0xd1, 0x3e,
  0x99, 0xbc, 0x35, 0x3e, 0x2a, 0xbf, 0x3c, 0xbe, 0x3a, 0xf9, 0x25, 0xbf,
  0x38, 0xbe, 0x7f, 0xbd, 0x7d, 0x3f, 0xee, 0xbd, 0xac, 0xd0, 0xf8, 0xbe,
  0x7a, 0x18, 0x12, 0x3e, 0xf1, 0x04, 0x65, 0x3e, 0x1b, 0xff, 0x06, 0xbf,
  0xce, 0x55, 0x7a, 0x3e, 0x9e, 0x52, 0x9f, 0x3e, 0x79, 0x5d, 0x0c, 0x3c,
  0x30, 0xbb, 0x1a, 0xbf, 0xd6, 0x8d, 0x74, 0xbe, 0x18, 0xc4, 0x47, 0xbe,
  0x17, 0x05, 0x18, 0x3e, 0x62, 0x3b, 0xe6, 0xbd, 0xdd, 0xfd, 0xd9, 0x3e,
  0x79, 0xf1, 0x40, 0xbe, 0xb9, 0x4f, 0x7b, 0xbe, 0xec, 0xe0, 0x89, 0x3c,
  0x67, 0xa7, 0x23, 0x3c, 0xe7, 0x72, 0x16, 0x3e, 0x6b, 0xb2, 0xd3, 0x3e,
  0x71, 0x4e, 0x43, 0x3f, 0xd0, 0x5e, 0xdd, 0x3e, 0x2f, 0x1f, 0xb0, 0x3e,
  0x80, 0xc6, 0x8a, 0xbe, 0x0d, 0x20, 0x18, 0x3e, 0x73, 0x2a, 0x22, 0x3e,
  0x0d, 0x6c, 0x35, 0x3e, 0x9d, 0xa4, 0x2f, 0xbe, 0x14, 0x4b, 0x97, 0x3e,
  0x76, 0x4f, 0xd2, 0x3e, 0x3e, 0xb2, 0xff, 0xff, 0x10, 0x00, 0x00, 0x00,
  0x24, 0x00, 0x00, 0x00, 0x14, 0x00, 0x00, 0x00, 0x30, 0x00, 0x00, 0x00,
  0x02, 0x00, 0x00, 0x00, 0x11, 0x00, 0x00, 0x00, 0x11, 0x00, 0x00, 0x00,
  0x1a, 0x00, 0x00, 0x00, 0x73, 0x65, 0x71, 0x75, 0x65, 0x6e, 0x74, 0x69,
  0x61, 0x6c, 0x2f, 0x64, 0x65, 0x6e, 0x73, 0x65, 0x5f, 0x31, 0x34, 0x2f,
  0x4d, 0x61, 0x74, 0x4d, 0x75, 0x6c, 0x00, 0x00, 0xd0, 0xb1, 0xff, 0xff,
  0xda, 0xb2, 0xff, 0xff, 0x04, 0x00, 0x00, 0x00, 0x84, 0x04, 0x00, 0x00,
  0x1e, 0x12, 0xb1, 0x3e, 0xc0, 0xa8, 0x18, 0x3f, 0xbf, 0xd9, 0xba, 0x3e,
  0xb5, 0xa6, 0xc1, 0x3e, 0xac, 0xf2, 0x15, 0xbe, 0x9f, 0x83, 0xab, 0x3e,
  0x3f, 0xe2, 0xc4, 0x3d, 0x6b, 0x38, 0x9c, 0xbe, 0x15, 0xc9, 0x9a, 0xbe,
  0x38, 0xfb, 0x72, 0xbe, 0x02, 0xb8, 0x3b, 0xbe, 0xa4, 0xae, 0x19, 0x3f,
  0xed, 0x00, 0xfa, 0xbb, 0xf2, 0x3f, 0x2e, 0x3f, 0xfb, 0xfe, 0x8a, 0xbe,
  0x90, 0x4f, 0xf3, 0x3e, 0xc3, 0x3e, 0x20, 0x3e, 0x88, 0x7b, 0xcf, 0xbe,
  0x90, 0x44, 0x20, 0xbd, 0x48, 0xef, 0x1b, 0xbf, 0x8e, 0xfe, 0x1b, 0xbf,
  0x99, 0x5b, 0x0d, 0xbf, 0xa9, 0x93, 0x55, 0x3e, 0xb7, 0x98, 0x89, 0xbd,
  0xa9, 0xfc, 0x53, 0xbe, 0x82, 0x41, 0x30, 0x3d, 0x12, 0xcd, 0xb2, 0x3e,
  0x3d, 0xd9, 0x16, 0xbf, 0x9f, 0x45, 0x2b, 0xbf, 0x27, 0x99, 0xe7, 0x3d,
  0x65, 0x16, 0xf7, 0xbe, 0x52, 0x4e, 0x61, 0x3c, 0xae, 0xd1, 0x2a, 0xbf,
  0x0a, 0xf1, 0xb8, 0xbd, 0xe4, 0xeb, 0xae, 0xbd, 0x2e, 0x3a, 0xbe, 0xbc,
  0x9a, 0xca, 0x39, 0x3d, 0xd9, 0x93, 0x35, 0xbe, 0xf5, 0x7a, 0x9b, 0x3e,
  0x9a, 0xa8, 0x6d, 0xbe, 0xd5, 0x53, 0xef, 0xbe, 0x14, 0x64, 0x54, 0xbe,
  0x7e, 0xe3, 0x43, 0x3c, 0xa4, 0xcf, 0x1c, 0xbe, 0x3f, 0x8d, 0x0f, 0xbf,
  0xf7, 0xac, 0xe5, 0x3c, 0x97, 0x5f, 0x98, 0x3d, 0x47, 0x6b, 0x91, 0x3e,
  0x1c, 0x58, 0xeb, 0x3b, 0xfe, 0x24, 0x39, 0x3d, 0xb1, 0x99, 0x69, 0x3e,
  0x46, 0x4b, 0xd2, 0x3e, 0x5e, 0xcb, 0xea, 0xbd, 0x5f, 0xab, 0x37, 0x3e,
  0x63, 0xfd, 0xab, 0xbd, 0x1f, 0x66, 0x21, 0xbc, 0xcf, 0x91, 0xcd, 0xbe,
  0x7b, 0x92, 0x54, 0xbd, 0x73, 0x15, 0xc2, 0xbd, 0xa5, 0x4d, 0x7e, 0xbd,
  0xd5, 0xb2, 0x84, 0x3e, 0xb6, 0x25, 0x92, 0x3c, 0xbe, 0x12, 0xf4, 0xbd,
  0x2c, 0xf3, 0x4e, 0xbf, 0x78, 0x91, 0x1d, 0xbe, 0x9d, 0xfd, 0xfe, 0xbc,
  0xfb, 0xf8, 0x46, 0xbd, 0x94, 0xd6, 0x21, 0x3d, 0x27, 0xa8, 0x30, 0x3f,
  0xce, 0xbf, 0x05, 0x3f, 0x63, 0x14, 0xb8, 0x3e, 0x09, 0xf9, 0x25, 0x3e,
  0x5c, 0x88, 0x14, 0x3f, 0xc6, 0xf5, 0xd0, 0x3d, 0x7b, 0xa4, 0xf4, 0x3e,
  0xfa, 0x0a, 0x7d, 0x3e, 0x75, 0x00, 0xf3, 0x3e, 0x0d, 0x98, 0xdd, 0x3e,
  0x67, 0xf9, 0xbb, 0x3e, 0xf0, 0x0f, 0x46, 0x3f, 0xbc, 0x33, 0x80, 0x3e,
  0x82, 0xca, 0xcd, 0xbe, 0x9f, 0xbe, 0xd8, 0x3e, 0xa7, 0x54, 0xcd, 0x3e,
  0xf6, 0xd0, 0x43, 0xbe, 0x2e, 0x12, 0x4c, 0x3e, 0x0e, 0x4e, 0xbb, 0xbd,
  0x60, 0xb5, 0x5f, 0xbe, 0x36, 0xc4, 0x50, 0x3d, 0x71, 0xe9, 0x31, 0x3e,
  0xbe, 0x61, 0xcb, 0x3e, 0x46, 0x53, 0x12, 0xbe, 0x3d, 0xc5, 0xa9, 0xbe,
  0x20, 0xee, 0x64, 0x3e, 0xfa, 0x9d, 0xba, 0xbe, 0x41, 0xe8, 0x87, 0xbe,
  0xc0, 0xf3, 0xf0, 0xbd, 0xe6, 0x96, 0xe4, 0xbe, 0x91, 0x31, 0x54, 0xbe,
  0xa8, 0x29, 0x87, 0x3e, 0xb8, 0xb3, 0x5c, 0x3c, 0x77, 0x34, 0x38, 0x3d,
  0x84, 0xff, 0x3c, 0x3e, 0x03, 0x8b, 0xef, 0x3d, 0xdc, 0xcc, 0x23, 0x3d,
  0x25, 0x0e, 0xcc, 0x3e, 0x76, 0x77, 0xcf, 0x3e, 0x46, 0x86, 0xfd, 0x3d,
  0x1b, 0xca, 0x66, 0xbe, 0x95, 0x31, 0x55, 0xbe, 0x72, 0x5f, 0x55, 0x3e,
  0xa7, 0x62, 0x8e, 0xbe, 0x7a, 0xc7, 0x8d, 0x3e, 0x98, 0x04, 0xb9, 0x3e,
  0xa9, 0xe7, 0x22, 0x3e, 0xb1, 0xf5, 0x9d, 0x3e, 0xb3, 0xfa, 0x29, 0xbe,
  0x99, 0x7d, 0xee, 0x3c, 0x9e, 0xf1, 0xb7, 0x3e, 0x0f, 0xa6, 0x83, 0x3d,
  0x06, 0xcb, 0xa4, 0x3e, 0x3d, 0xa0, 0x54, 0x3e, 0x94, 0x70, 0x91, 0xbd,
  0xf7, 0x8b, 0x37, 0x3d, 0xf7, 0xc3, 0xa2, 0xbd, 0x21, 0x3f, 0x0f, 0x3e,
  0x75, 0x25, 0x25, 0x3e, 0x5f, 0xbf, 0xbc, 0xbc, 0x25, 0xa0, 0xbf, 0x3d,
  0xa0, 0x85, 0xf6, 0x3e, 0x98, 0xf6, 0x58, 0x3e, 0xa7, 0x29, 0xd5, 0xbc,
  0xda, 0xff, 0xf3, 0x3d, 0x63, 0xd2, 0x01, 0xbe, 0x2e, 0x00, 0x59, 0xbb,
  0x28, 0x16, 0xc2, 0x3d, 0xfb, 0x97, 0x88, 0xbe, 0x27, 0xe2, 0xb2, 0x3e,
  0xd5, 0x18, 0x01, 0xbf, 0x68, 0xe9, 0x01, 0x3e, 0x57, 0xbd, 0x4a, 0x3e,
  0xf6, 0x65, 0x96, 0xbe, 0x70, 0xb3, 0x26, 0x3d, 0xdb, 0xb3, 0x11, 0xbe,
  0x95, 0x8a, 0x2b, 0xbe, 0x2c, 0xa1, 0xdd, 0xbe, 0x29, 0x3d, 0xbe, 0xbe,
  0xe1, 0xb4, 0xc7, 0x3e, 0x3c, 0x4c, 0x1b, 0xbd, 0xc6, 0x9f, 0x87, 0x3d,
  0xcb, 0xfb, 0x25, 0xbe, 0x3e, 0xf0, 0x31, 0xbe, 0xe1, 0xe6, 0xa4, 0x3e,
  0xec, 0x7a, 0x55, 0xbe, 0xe4, 0xdf, 0xbb, 0x3e, 0x54, 0x1f, 0xfd, 0xbd,
  0xa1, 0x1c, 0xc5, 0xbe, 0xd8, 0x66, 0x46, 0x3b, 0x46, 0xd3, 0x97, 0xbc,
  0x12, 0xca, 0xb1, 0x3e, 0xa3, 0x63, 0x80, 0xbe, 0x28, 0x5e, 0xa3, 0xbe,
  0x9d, 0x10, 0xde, 0x3d, 0x61, 0x29, 0x75, 0x3c, 0x03, 0x62, 0xea, 0x3d,
  0xb1, 0x42, 0xcd, 0x3e, 0xcf, 0xef, 0x03, 0x3e, 0x23, 0x32, 0xcc, 0xbe,
  0x3b, 0xd5, 0xcb, 0xbd, 0xeb, 0x66, 0x91, 0xbe, 0x6b, 0xec, 0x3d, 0xbe,
  0xa5, 0x6b, 0xe2, 0xbe, 0xac, 0x12, 0x3c, 0xbf, 0xf2, 0x65, 0xa4, 0xbe,
  0x8f, 0xe6, 0x34, 0xbd, 0x97, 0x00, 0x06, 0x3f, 0xf8, 0x9d, 0x0f, 0xbf,
  0x30, 0xb8, 0x55, 0xbf, 0x46, 0x6e, 0xd3, 0xbc, 0xd5, 0xc9, 0x2e, 0x3d,
  0x09, 0xb6, 0xad, 0x3e, 0x2a, 0x5d, 0x07, 0xbf, 0x62, 0x18, 0x59, 0x3e,
  0xda, 0xab, 0xa5, 0xbd, 0x33, 0xa4, 0x0f, 0xbf, 0x2a, 0x76, 0x85, 0x3c,
  0xd9, 0x45, 0xf7, 0xbe, 0x47, 0xa4, 0xdd, 0xbd, 0xea, 0x14, 0x5c, 0xbe,
  0x0e, 0x31, 0x0e, 0xbf, 0x79, 0x37, 0x64, 0xbe, 0x03, 0xbf, 0xc2, 0xbe,
  0x19, 0x64, 0xb2, 0x3e, 0xfa, 0xe8, 0x00, 0xbe, 0x0f, 0xd3, 0xe6, 0xbe,
  0x98, 0xce, 0xff, 0x3e, 0xdf, 0x35, 0xec, 0x3e, 0x92, 0xee, 0x54, 0xbe,
  0x4b, 0xe4, 0x5d, 0xbe, 0x79, 0x3f, 0xb9, 0x3e, 0xbc, 0xde, 0x79, 0xbe,
  0xb1, 0x4e, 0xd5, 0xbe, 0x5e, 0xec, 0x71, 0xbd, 0x2f, 0x88, 0xae, 0xbe,
  0x5a, 0x14, 0x32, 0x3c, 0x57, 0x83, 0x13, 0x3e, 0x8e, 0xb9, 0xa3, 0x3d,
  0xcf, 0xc9, 0x76, 0x3e, 0xd3, 0xa8, 0x9e, 0xbe, 0x0b, 0xf7, 0x4e, 0x3c,
  0x9d, 0xe0, 0x8b, 0x3e, 0xd4, 0xfc, 0x4d, 0x3e, 0x21, 0x1b, 0x9e, 0x3e,
  0xcd, 0x81, 0xa1, 0xbe, 0xaa, 0xff, 0x04, 0x3e, 0xff, 0xa2, 0x7e, 0x3e,
  0x8f, 0xeb, 0x3b, 0x3e, 0xe6, 0xc7, 0x01, 0x3f, 0x45, 0xdb, 0xb3, 0xbe,
  0x31, 0xc0, 0x93, 0x3e, 0x78, 0xb4, 0x80, 0xbc, 0x47, 0xc5, 0x13, 0xbe,
  0x00, 0xad, 0x5d, 0x3e, 0xa3, 0x42, 0xe6, 0xbe, 0xd6, 0xff, 0xaf, 0x3e,
  0x4e, 0xc7, 0x64, 0xbe, 0xaf, 0x53, 0x93, 0xbe, 0xb7, 0xb7, 0xca, 0x3d,
  0xc5, 0x7e, 0xf0, 0xbe, 0x98, 0xb7, 0x31, 0x3d, 0xff, 0x04, 0x5e, 0xbe,
  0x45, 0x40, 0x1b, 0xbf, 0xf7, 0x32, 0xed, 0xbd, 0x2f, 0x36, 0xb8, 0xbc,
  0x53, 0xac, 0x57, 0x3e, 0x08, 0xde, 0x08, 0x3e, 0x2e, 0x54, 0x9c, 0x3e,
  0xb0, 0x31, 0x31, 0x3f, 0xd3, 0x79, 0xed, 0x3e, 0x23, 0x25, 0xbe, 0x3d,
  0xb3, 0x7a, 0x47, 0x3e, 0x7d, 0x36, 0x83, 0x3e, 0x6d, 0x9b, 0x77, 0xbe,
  0x05, 0x2e, 0x14, 0xbe, 0x0e, 0x3b, 0x59, 0x3e, 0xaa, 0x9f, 0xaf, 0xbe,
  0x1d, 0xa7, 0x92, 0x3e, 0xac, 0x52, 0x5a, 0xbe, 0x7a, 0x44, 0xbf, 0x3d,
  0x06, 0xb0, 0xa3, 0x3e, 0xe7, 0x62, 0x8f, 0xbd, 0x02, 0xc2, 0x82, 0xbe,
  0xc5, 0xe5, 0x95, 0xbb, 0xc4, 0x0a, 0xa9, 0x3e, 0x4e, 0x84, 0x83, 0xbd,
  0xff, 0xb8, 0xbe, 0xbd, 0x5a, 0x90, 0xe9, 0x3e, 0xa8, 0x7d, 0xf0, 0xbd,
  0x8f, 0x7d, 0xc3, 0x3e, 0x7b, 0x5a, 0x87, 0xbe, 0x64, 0x3c, 0x88, 0x3d,
  0xfa, 0xe6, 0xf9, 0xbd, 0xa9, 0x70, 0x17, 0xbe, 0x81, 0x9c, 0x93, 0xbd,
  0x6e, 0x6b, 0x48, 0xbe, 0x51, 0x35, 0xfe, 0x3d, 0x54, 0x37, 0x46, 0xbd,
  0x95, 0x72, 0x6b, 0x3e, 0xea, 0xe1, 0xd1, 0x3d, 0x1a, 0x96, 0x16, 0x3c,
  0xad, 0x5d, 0xf1, 0x3e, 0x72, 0x9f, 0xbc, 0xbd, 0xa1, 0x99, 0xad, 0x3e,
  0xb9, 0x7d, 0x0d, 0xbe, 0xb3, 0xbf, 0x00, 0x3f, 0x01, 0x9f, 0x99, 0x3e,
  0x8b, 0x09, 0xd8, 0xbd, 0x1a, 0x1c, 0x0f, 0xbe, 0xe9, 0x17, 0x97, 0x3c,
  0xa2, 0x97, 0x0f, 0x3c, 0xc6, 0xc9, 0x02, 0x3e, 0xc7, 0xbf, 0xd9, 0xbd,
  0xd5, 0x4c, 0x1e, 0x3f, 0xcf, 0xe1, 0x38, 0x3f, 0x42, 0x09, 0x94, 0xbd,
  0xcd, 0x53, 0x6f, 0x3e, 0x9e, 0xd4, 0x99, 0xbe, 0x12, 0x3f, 0xa3, 0x3e,
  0x97, 0xca, 0xef, 0x3d, 0x12, 0xb7, 0xff, 0xff, 0x10, 0x00, 0x00, 0x00,
  0x23, 0x00, 0x00, 0x00, 0x14, 0x00, 0x00, 0x00, 0x30, 0x00, 0x00, 0x00,
  0x02, 0x00, 0x00, 0x00, 0x11, 0x00, 0x00, 0x00, 0x11, 0x00, 0x00, 0x00,
  0x1a, 0x00, 0x00, 0x00, 0x73, 0x65, 0x71, 0x75, 0x65, 0x6e, 0x74, 0x69,
  0x61, 0x6c, 0x2f, 0x64, 0x65, 0x6e, 0x73, 0x65, 0x5f, 0x31, 0x33, 0x2f,
  0x4d, 0x61, 0x74, 0x4d, 0x75, 0x6c, 0x00, 0x00, 0xa4, 0xb6, 0xff, 0xff,
  0xae, 0xb7, 0xff, 0xff, 0x04, 0x00, 0x00, 0x00, 0x84, 0x04, 0x00, 0x00,
  0x80, 0x58, 0xf9, 0x3d, 0x44, 0xab, 0x04, 0xbe, 0x48, 0xf8, 0x94, 0x3d,
  0x75, 0x16, 0xe3, 0xbd, 0xda, 0x65, 0x73, 0x3e, 0x2a, 0x10, 0xc3, 0xbe,
  0x44, 0x65, 0xc7, 0x3e, 0x09, 0xb9, 0x84, 0xbd, 0xa3, 0x01, 0xfd, 0x3d,
  0x87, 0x8e, 0x2b, 0xbd, 0xe8, 0x79, 0xd2, 0x3d, 0x4c, 0x93, 0xf7, 0x3d,
  0xb7, 0x50, 0xd1, 0x3e, 0xc7, 0x77, 0x3b, 0x3e, 0x5d, 0x0b, 0x15, 0xbe,
  0x70, 0xee, 0x55, 0x3e, 0x4e, 0x26, 0xfa, 0xbe, 0x35, 0x2e, 0x97, 0x3e,
  0x70, 0x26, 0x2b, 0x39, 0xe3, 0x6e, 0x83, 0xbe, 0xae, 0xf2, 0x20, 0x3f,
  0xa5, 0xf0, 0x44, 0x3e, 0x13, 0x39, 0x0b, 0xbc, 0xa4, 0x1e, 0x92, 0xbd,
  0x71, 0x45, 0x29, 0xbe, 0x47, 0x7c, 0xeb, 0x3e, 0x05, 0x4a, 0x0b, 0xbe,
  0x41, 0x99, 0xff, 0x3e, 0x61, 0x4a, 0xce, 0xbe, 0x02, 0xfa, 0x12, 0x3e,
  0x14, 0x32, 0xff, 0x3c, 0x48, 0x8f, 0x14, 0xbf, 0x8c, 0x62, 0xbd, 0xbd,
  0x84, 0xf6, 0xf0, 0xbb, 0x48, 0x32, 0xda, 0x3c, 0xd3, 0x15, 0x87, 0x3d,
  0x1c, 0x62, 0xab, 0x3c, 0x91, 0x4c, 0x8a, 0x3e, 0x5d, 0x26, 0x00, 0xbc,
  0xef, 0xb4, 0xb0, 0x3d, 0x65, 0x24, 0xa4, 0x3e, 0xcf, 0x1e, 0x51, 0xbe,
  0xd6, 0x42, 0xfb, 0x3e, 0x31, 0x8c, 0x74, 0x3e, 0xae, 0x65, 0xbe, 0xbd,
  0xf9, 0x2c, 0xc2, 0x3e, 0x38, 0xa3, 0xe8, 0x3d, 0xf5, 0xa6, 0xae, 0x3d,
  0xe3, 0xd8, 0xdb, 0xbd, 0x1f, 0x08, 0x9f, 0xbd, 0xe2, 0x20, 0xb2, 0x3c,
  0xcc, 0x12, 0x6b, 0x3e, 0x87, 0x74, 0x86, 0x3e, 0xcf, 0x44, 0x27, 0x3e,
  0x5d, 0xe3, 0x07, 0x3f, 0xc1, 0x9c, 0x05, 0x3f, 0xe7, 0x89, 0xa0, 0x3e,
  0x8b, 0x30, 0xcd, 0x3e, 0xdb, 0x7c, 0xb1, 0xbe, 0x54, 0x05, 0xd2, 0x3e,
  0x7b, 0x82, 0x7b, 0x3e, 0x8d, 0x63, 0xcf, 0x3e, 0x77, 0xcc, 0xc9, 0xbe,
  0xa0, 0xd7, 0xa8, 0xbe, 0xa7, 0x84, 0xa9, 0x3e, 0xda, 0x01, 0x77, 0x3d,
  0x56, 0x49, 0xaf, 0xbe, 0x86, 0xd8, 0x95, 0xbe, 0x94, 0x98, 0xad, 0x3e,
  0x73, 0x69, 0x0c, 0x3e, 0x3e, 0xc1, 0xea, 0x3d, 0x9f, 0xc8, 0xb5, 0x3e,
  0x9f, 0xfd, 0x24, 0x3e, 0x05, 0x06, 0xd3, 0xbe, 0x11, 0x8a, 0xc9, 0xbd,
  0x97, 0xb5, 0x07, 0xbb, 0xab, 0x8c, 0x2e, 0xbf, 0x8b, 0x0b, 0xc9, 0x3d,
  0x24, 0xe3, 0xf1, 0x3e, 0xd2, 0xcb, 0x1b, 0x3e, 0x54, 0x24, 0xf2, 0x3d,
  0x09, 0x51, 0x6f, 0x3e, 0x78, 0x81, 0x08, 0xbe, 0x3b, 0x4d, 0x3f, 0x3e,
  0xaf, 0x40, 0x6a, 0x3e, 0xa8, 0xea, 0x9b, 0x3e, 0xda, 0x16, 0xef, 0xbe,
  0xec, 0x4d, 0x3a, 0xbf, 0x48, 0xcf, 0x7c, 0xbc, 0x3a, 0xb0, 0x5e, 0x3e,
  0xba, 0x93, 0xa8, 0xbe, 0x7b, 0x75, 0x2c, 0xbe, 0x2d, 0x18, 0x48, 0x3d,
  0x69, 0x20, 0xc1, 0x3d, 0xf0, 0x7c, 0xed, 0x3d, 0x9c, 0x29, 0x78, 0x3e,
  0xbb, 0x89, 0xa4, 0x3e, 0xe4, 0x46, 0x58, 0xbe, 0xc0, 0xfe, 0x04, 0x3f,
  0x57, 0x98, 0xcc, 0x3e, 0x82, 0xdc, 0xbe, 0x3e, 0xbd, 0xec, 0x0b, 0xbe,
  0xc5, 0x65, 0x38, 0xbe, 0x73, 0x69, 0xe8, 0xbd, 0x36, 0x47, 0xda, 0x3c,
  0x66, 0x2d, 0xb5, 0x3e, 0xb3, 0x71, 0x87, 0x3e, 0x97, 0x29, 0x70, 0x3d,
  0x90, 0xc2, 0x9f, 0xbe, 0x57, 0x40, 0x41, 0x3e, 0xb6, 0x2b, 0x83, 0xbd,
  0x0c, 0x2a, 0x2d, 0xbe, 0xed, 0xb6, 0xdf, 0x3e, 0x66, 0xb2, 0x57, 0x3e,
  0x1d, 0xc5, 0xb3, 0x3e, 0x3f, 0xce, 0x2a, 0x3e, 0xf0, 0x11, 0x05, 0xbf,
  0x33, 0x42, 0x5d, 0x3d, 0x4b, 0xf5, 0xe9, 0x3d, 0xba, 0xfa, 0xb1, 0xbe,
  0xa7, 0xa9, 0xc0, 0x3e, 0xca, 0x15, 0xf2, 0x3e, 0x8a, 0x94, 0xa6, 0xbd,
  0xc6, 0x79, 0xfd, 0x3e, 0x0f, 0xb5, 0xcb, 0xbe, 0xfc, 0xae, 0xcc, 0x3e,
  0x6b, 0x14, 0xa5, 0x3e, 0x6a, 0x66, 0xf4, 0xbc, 0x59, 0xe4, 0xd5, 0x3e,
  0x83, 0x6e, 0x27, 0x3e, 0x65, 0x8a, 0xd2, 0x3e, 0xdd, 0xcc, 0xe0, 0xbd,
  0x79, 0xe2, 0x92, 0x3d, 0xb0, 0x5d, 0xb3, 0xbd, 0xbd, 0x4f, 0x9f, 0xbe,
  0x63, 0xdc, 0x33, 0x3e, 0xbc, 0xfb, 0x5a, 0xbd, 0x29, 0x0e, 0x84, 0xbe,
  0x73, 0xa4, 0xc2, 0xbe, 0x5c, 0x58, 0xb3, 0xbe, 0x37, 0x80, 0x16, 0xbf,
  0x2e, 0x62, 0x10, 0x3e, 0x20, 0xc6, 0x9c, 0x3d, 0x24, 0xfa, 0x28, 0xbf,
  0x61, 0xa0, 0xb9, 0xbd, 0x35, 0x36, 0x11, 0xbe, 0xeb, 0x90, 0x24, 0xbe,
  0xbf, 0xe3, 0xd4, 0x3e, 0xf8, 0x98, 0x1a, 0xbd, 0x48, 0x44, 0xfb, 0x3d,
  0xfd, 0x62, 0xe3, 0xbd, 0xfa, 0xd4, 0x1b, 0x3e, 0xed, 0x53, 0xb8, 0x3e,
  0xd7, 0xfa, 0x04, 0xbf, 0xc7, 0xf9, 0x20, 0xbf, 0xed, 0xb1, 0x4a, 0xbe,
  0xe1, 0xdd, 0xef, 0xbe, 0x36, 0xac, 0x9f, 0xbe, 0xef, 0xce, 0xb4, 0xbe,
  0x5f, 0xa9, 0x8a, 0xbe, 0xea, 0x7e, 0xa9, 0xbe, 0x62, 0xc3, 0x78, 0x3e,
  0x68, 0x0f, 0x07, 0xbc, 0x3a, 0x8b, 0x04, 0xbe, 0x38, 0x0c, 0x84, 0x3d,
  0x0c, 0xae, 0xc2, 0x3d, 0xed, 0x7b, 0x0e, 0x3e, 0x47, 0x65, 0x95, 0x3e,
  0x83, 0x57, 0xd1, 0x3e, 0x19, 0xab, 0x0e, 0x3f, 0x8c, 0xeb, 0xa6, 0xbd,
  0xe0, 0x03, 0x74, 0x3e, 0xfe, 0xa0, 0x89, 0x3d, 0x36, 0xe7, 0xb3, 0xbd,
  0xf4, 0xf5, 0x2d, 0x3e, 0x26, 0x7a, 0x83, 0xbe, 0x5d, 0x8e, 0x23, 0x3e,
  0xde, 0x6e, 0xe2, 0xbd, 0x56, 0x7b, 0x8f, 0x3d, 0xfd, 0x82, 0x5b, 0x3e,
  0xd9, 0xa9, 0x5d, 0x3e, 0x1c, 0x41, 0x2c, 0xbe, 0x00, 0x97, 0xb6, 0xbe,
  0x28, 0xec, 0xfe, 0x3e, 0x86, 0x38, 0x5b, 0x3e, 0x6b, 0xe9, 0x6f, 0xbe,
  0x32, 0x2c, 0x90, 0xbe, 0xc1, 0x93, 0xdb, 0x3d, 0x0b, 0x2c, 0xa2, 0x3e,
  0xd3, 0xdf, 0x84, 0x3e, 0x5e, 0x8e, 0xde, 0x3d, 0xbf, 0x63, 0xc1, 0x3d,
  0x6d, 0x45, 0x58, 0xbe, 0x7b, 0x80, 0x55, 0xbe, 0x40, 0x21, 0x41, 0xbe,
  0xc4, 0xb5, 0x8f, 0x3e, 0x28, 0x9d, 0x02, 0x3f, 0xbc, 0x9d, 0xde, 0x3e,
  0x69, 0x5d, 0xc6, 0xbe, 0xb7, 0xf5, 0x82, 0x3e, 0x7b, 0xc3, 0x33, 0x3f,
  0x1b, 0x48, 0x2f, 0xbe, 0x87, 0x98, 0x18, 0xbe, 0xe9, 0x8a, 0x96, 0xbd,
  0xeb, 0xc6, 0x87, 0xbe, 0x3c, 0x76, 0xa2, 0x3e, 0x6e, 0x90, 0x19, 0xbd,
  0x73, 0xc2, 0x95, 0x3e, 0x35, 0xf7, 0x8a, 0x3e, 0x64, 0xd9, 0x39, 0x3e,
  0x32, 0x0d, 0x82, 0x3e, 0x1d, 0x8d, 0x26, 0xbe, 0x26, 0x0a, 0x3d, 0xbd,
  0x07, 0x75, 0xf4, 0x3d, 0x21, 0xe7, 0xac, 0x3e, 0x98, 0xe3, 0x70, 0xbd,
  0x2a, 0x15, 0xb3, 0x39, 0xb7, 0x8a, 0x8f, 0xbe, 0x3f, 0x36, 0xd0, 0x3e,
  0xd8, 0x42, 0x57, 0xbe, 0x41, 0xbf, 0xa1, 0x3d, 0x10, 0x99, 0x98, 0xbe,
  0x8f, 0x9f, 0xd9, 0x3e, 0x91, 0xd6, 0x4b, 0xbe, 0x0b, 0x6e, 0xf5, 0x3e,
  0xa4, 0xab, 0x08, 0x3e, 0x3b, 0x99, 0x9a, 0xbe, 0x0f, 0x52, 0x3b, 0xbe,
  0xb3, 0x2f, 0x91, 0xbe, 0x51, 0x40, 0x16, 0x3f, 0x0f, 0x1c, 0x0f, 0x3e,
  0xdc, 0x7d, 0xc5, 0x3e, 0xc7, 0x39, 0x67, 0xbe, 0x67, 0x6b, 0xa3, 0xbd,
  0x77, 0x41, 0x0c, 0x3f, 0xed, 0x2e, 0x93, 0xbd, 0xf4, 0xed, 0x98, 0xbe,
  0x64, 0x40, 0xc7, 0x3d, 0x47, 0xc1, 0xc0, 0x3e, 0x47, 0xac, 0x91, 0x3f,
  0xb4, 0x8a, 0x06, 0x3f, 0x5a, 0xcb, 0xf3, 0x3e, 0x50, 0xe8, 0xa6, 0x3e,
  0xe9, 0x08, 0xca, 0xbe, 0x1b, 0x71, 0xb5, 0xbe, 0x2e, 0x37, 0x1d, 0x3f,
  0xb5, 0x86, 0xad, 0xbe, 0xe4, 0x7d, 0xd7, 0x3e, 0xf9, 0x16, 0x4f, 0xbd,
  0x00, 0x49, 0xa0, 0x3b, 0x53, 0x62, 0x25, 0xbd, 0xc0, 0x64, 0x57, 0x3e,
  0x67, 0x18, 0x4a, 0x3b, 0x66, 0xe8, 0xd2, 0xbb, 0xe2, 0x48, 0x62, 0xbe,
  0x8a, 0xf3, 0x8f, 0x3e, 0x1c, 0x98, 0xd9, 0xbd, 0xa3, 0xb6, 0xf2, 0x3d,
  0x85, 0x83, 0xb7, 0x3e, 0xcb, 0x14, 0x31, 0xbd, 0x19, 0xca, 0xb6, 0x3e,
  0xa9, 0x5c, 0x2f, 0x3d, 0xf3, 0xdd, 0x1c, 0xbe, 0xed, 0xe1, 0xef, 0x3d,
  0x94, 0x5f, 0xc4, 0x3e, 0xbb, 0xa0, 0xe2, 0x3e, 0x60, 0x69, 0xda, 0xbc,
  0x59, 0xdd, 0x99, 0x3e, 0xe8, 0xda, 0x41, 0x3d, 0xaf, 0xed, 0x33, 0xbe,
  0x21, 0x25, 0x9e, 0xbe, 0xa3, 0xd7, 0x5b, 0x3e, 0x20, 0x0f, 0x24, 0x3e,
  0xee, 0x98, 0xc3, 0xbc, 0x08, 0x48, 0x47, 0xbd, 0xb3, 0x05, 0x63, 0x3e,
  0xe7, 0xaa, 0xec, 0x3d, 0xba, 0x3b, 0xa4, 0x3d, 0x40, 0x2f, 0xe5, 0x3c,
  0x62, 0xde, 0x3e, 0xbd, 0xd1, 0xd5, 0x85, 0x3e, 0x3a, 0x42, 0x32, 0xbc,
  0x16, 0x8e, 0x83, 0xbc, 0xe0, 0x18, 0x60, 0x3d, 0x11, 0xe2, 0x88, 0xbe,
  0xd3, 0x0e, 0x3a, 0xbe, 0x2e, 0x0b, 0xb5, 0x3d, 0x78, 0xa6, 0xba, 0xbe,
  0x51, 0xbc, 0x48, 0x3d, 0xe6, 0xbb, 0xff, 0xff, 0x10, 0x00, 0x00, 0x00,
  0x22, 0x00, 0x00, 0x00, 0x14, 0x00, 0x00, 0x00, 0x30, 0x00, 0x00, 0x00,
  0x02, 0x00, 0x00, 0x00, 0x11, 0x00, 0x00, 0x00, 0x11, 0x00, 0x00, 0x00,
  0x1a, 0x00, 0x00, 0x00, 0x73, 0x65, 0x71, 0x75, 0x65, 0x6e, 0x74, 0x69,
  0x61, 0x6c, 0x2f, 0x64, 0x65, 0x6e, 0x73, 0x65, 0x5f, 0x31, 0x32, 0x2f,
  0x4d, 0x61, 0x74, 0x4d, 0x75, 0x6c, 0x00, 0x00, 0x78, 0xbb, 0xff, 0xff,
  0x82, 0xbc, 0xff, 0xff, 0x04, 0x00, 0x00, 0x00, 0x84, 0x04, 0x00, 0x00,
  0xc5, 0x06, 0x9f, 0x3e, 0x40, 0xec, 0x17, 0xbe, 0xce, 0x04, 0xbb, 0x3e,
  0x0b, 0x87, 0xd9, 0x3e, 0x7a, 0x4b, 0x8e, 0xbe, 0x52, 0x77, 0x9c, 0x3c,
  0xe2, 0xb5, 0xa3, 0xbe, 0x60, 0xe9, 0x9f, 0xbe, 0xd5, 0xea, 0xf5, 0x3d,
  0x57, 0x96, 0xf6, 0x3d, 0x44, 0x9b, 0x85, 0x3e, 0x8d, 0x43, 0xd5, 0x3c,
  0x08, 0x67, 0xfb, 0xbd, 0x02, 0xb0, 0x39, 0xbe, 0x12, 0x54, 0xc9, 0x3d,
  0x1f, 0x06, 0x3a, 0xbc, 0x24, 0x97, 0xd9, 0x3e, 0x22, 0xea, 0x7f, 0xbe,
  0xf5, 0x06, 0x91, 0x3b, 0x54, 0x3f, 0xb4, 0xbc, 0xef, 0xa4, 0x8a, 0x3e,
  0x05, 0x35, 0xad, 0x3e, 0x79, 0x30, 0x92, 0x3e, 0xb1, 0x14, 0x21, 0xbf,
  0xa6, 0x80, 0x59, 0x3e, 0xf5, 0x91, 0xc8, 0xbd, 0x78, 0xb9, 0x5e, 0x3d,
  0x99, 0xb3, 0xa0, 0x3e, 0x15, 0xbc, 0x1d, 0xbd, 0x0b, 0x31, 0xc1, 0xbd,
  0xec, 0x73, 0x9d, 0x3e, 0x46, 0xd5, 0x00, 0x3f, 0x27, 0xbb, 0xd0, 0x3e,
  0x5a, 0xdf, 0x3a, 0x3f, 0x6c, 0x61, 0x61, 0xbe, 0x7d, 0x22, 0x54, 0x3c,
  0x22, 0x60, 0xbc, 0xbe, 0xbe, 0x4d, 0xf3, 0x3c, 0xdd, 0xcc, 0xb8, 0x3c,
  0x87, 0xa8, 0xe3, 0x3e, 0xe0, 0x7f, 0x9b, 0xbc, 0xce, 0xe1, 0x88, 0x3d,
  0x9f, 0xbb, 0x3e, 0xbd, 0x81, 0xb7, 0xac, 0x3e, 0x8c, 0x17, 0x34, 0x3e,
  0x3e, 0xb1, 0x02, 0x3f, 0x15, 0xa9, 0x08, 0xbd, 0xe0, 0x69, 0xce, 0xbe,
  0xe9, 0x1a, 0x2e, 0x3e, 0xe8, 0x77, 0x07, 0xbf, 0x08, 0x74, 0xb2, 0xbd,
  0x85, 0x01, 0x03, 0x3e, 0x14, 0x78, 0x87, 0xbe, 0xec, 0xd7, 0x8b, 0x3e,
  0x75, 0x75, 0xa0, 0x3e, 0x1e, 0x5a, 0xdc, 0x3e, 0xf8, 0x04, 0xf8, 0x3e,
  0x6a, 0x15, 0xbe, 0x3e, 0xbc, 0x13, 0x43, 0xbe, 0xfa, 0xd3, 0x48, 0x3d,
  0x53, 0xf1, 0xb0, 0x3d, 0xde, 0x08, 0x94, 0x3e, 0xcd, 0x2d, 0xcd, 0x3e,
  0xde, 0x56, 0x0b, 0xbd, 0x3b, 0x5d, 0x25, 0x3d, 0x1c, 0x69, 0xbe, 0x3d,
  0x62, 0x8b, 0x27, 0x3e, 0x4b, 0x6f, 0xa0, 0x3c, 0x48, 0xe5, 0xd4, 0x3d,
  0x06, 0xea, 0x1e, 0xbe, 0x8c, 0x59, 0xc2, 0xbd, 0x72, 0x95, 0xab, 0x3e,
  0x20, 0x1f, 0xe0, 0x3e, 0xdc, 0x40, 0x35, 0x3f, 0x5e, 0xdf, 0x58, 0x3e,
  0x7a, 0x79, 0x90, 0x3e, 0x41, 0xaa, 0x48, 0xbe, 0x0b, 0x10, 0xa4, 0x3e,
  0x59, 0x0a, 0xb9, 0x3e, 0x3f, 0x77, 0xa9, 0x3e, 0x5a, 0x40, 0xf6, 0x3d,
  0x00, 0xce, 0x86, 0xbd, 0xce, 0x5c, 0x32, 0x3f, 0x25, 0x0f, 0xe3, 0x3d,
  0x23, 0xf4, 0xc3, 0x3e, 0x13, 0x4c, 0xba, 0xbe, 0xcc, 0x21, 0xb3, 0xbe,
  0x33, 0xf8, 0xb7, 0xbd, 0xaf, 0x61, 0x3c, 0xbe, 0x67, 0x28, 0x88, 0x3e,
  0xc1, 0x83, 0x45, 0xbe, 0x5d, 0xb3, 0xb5, 0x3e, 0x5c, 0x5b, 0xf5, 0x3d,
  0x05, 0x2f, 0xb9, 0xbe, 0xc7, 0xd4, 0x8c, 0xbe, 0x0f, 0xb0, 0x0f, 0x3e,
  0x6b, 0xbd, 0x74, 0x3d, 0xf4, 0x58, 0xf2, 0x3d, 0x53, 0x06, 0x5c, 0xbe,
  0x25, 0x05, 0x9b, 0x3e, 0xd2, 0x4b, 0x1e, 0x3e, 0x7a, 0x43, 0x29, 0x3e,
  0x00, 0x74, 0x35, 0xbc, 0x7d, 0xf6, 0xfc, 0xbe, 0x4d, 0x23, 0xb2, 0xbd,
  0xb3, 0x9a, 0xda, 0xbd, 0x29, 0xeb, 0xb0, 0xbe, 0x1c, 0x69, 0xc0, 0x3d,
  0x6a, 0xd1, 0x63, 0x3e, 0x5c, 0xbe, 0xa4, 0x3d, 0x4d, 0xec, 0xc0, 0xbe,
  0xb6, 0x99, 0xce, 0xbe, 0x75, 0x62, 0x4a, 0x3e, 0x21, 0x17, 0x44, 0x3d,
  0xee, 0x06, 0x5a, 0x3e, 0xe2, 0x52, 0xf2, 0xbd, 0xf2, 0xe6, 0xc6, 0x3e,
  0xe7, 0xca, 0x97, 0x3e, 0xdf, 0x08, 0xc2, 0xbe, 0xad, 0x4e, 0xfd, 0x3e,
  0x5b, 0xac, 0x45, 0x3e, 0x46, 0xb3, 0x17, 0xbf, 0xee, 0x89, 0xce, 0xbe,
  0x2b, 0x51, 0x14, 0x3f, 0x3c, 0xe1, 0xce, 0x3e, 0x38, 0x03, 0x6c, 0x3e,
  0x9c, 0xb2, 0xdb, 0x3e, 0xb5, 0x83, 0xd3, 0x3d, 0x6a, 0xc4, 0x43, 0x3f,
  0xf4, 0xec, 0x09, 0x3f, 0x19, 0x2e, 0x52, 0x3f, 0x99, 0x91, 0x30, 0x3d,
  0x6d, 0x97, 0x3c, 0xbe, 0xb9, 0x58, 0xc0, 0x3d, 0x50, 0x93, 0x1e, 0xbe,
  0x77, 0xd9, 0xc7, 0x3e, 0x90, 0x07, 0xfe, 0x3e, 0x53, 0x25, 0x92, 0xbe,
  0x8d, 0x41, 0xad, 0x3d, 0x40, 0x88, 0x61, 0x3f, 0x78, 0x59, 0x60, 0xbe,
  0x3c, 0x7d, 0xf9, 0xbd, 0x75, 0x78, 0x46, 0x3e, 0x54, 0x84, 0x88, 0x3e,
  0x24, 0x64, 0x77, 0x3d, 0x46, 0x65, 0x18, 0xbe, 0xb7, 0x9b, 0x82, 0x3d,
  0xf4, 0x36, 0xd0, 0x3e, 0x33, 0x70, 0xbb, 0x3d, 0x3a, 0xd7, 0xd0, 0x3e,
  0xf2, 0x41, 0x37, 0xbd, 0x55, 0x9a, 0x40, 0x3f, 0xb9, 0x65, 0xe4, 0x3e,
  0xa4, 0x2a, 0xa7, 0xbd, 0xd9, 0x50, 0x7b, 0xbd, 0xce, 0xf0, 0xd2, 0xb9,
  0x6e, 0x97, 0x93, 0x3e, 0xed, 0xbe, 0x91, 0x3e, 0x7a, 0x91, 0xda, 0x3e,
  0x54, 0x0c, 0xb4, 0xbd, 0x9e, 0xb2, 0xe9, 0x3d, 0xec, 0x9a, 0xf8, 0xbd,
  0x6f, 0xd6, 0x08, 0x3e, 0xbe, 0xea, 0x22, 0xbe, 0x6d, 0x0d, 0xe7, 0x3e,
  0xbc, 0x40, 0x84, 0x3e, 0x0f, 0x60, 0xdd, 0xbd, 0x03, 0xbe, 0x95, 0x3e,
  0x65, 0xa7, 0x19, 0x3f, 0x4e, 0x21, 0x67, 0x3e, 0x3d, 0xb7, 0xa1, 0x3e,
  0xe1, 0x76, 0x6e, 0xbe, 0x62, 0x68, 0x2f, 0xbb, 0x44, 0x82, 0xf4, 0x3e,
  0x56, 0x2e, 0xf4, 0x3d, 0x04, 0x28, 0xdd, 0x3e, 0x65, 0x9c, 0xa8, 0x3e,
  0x6f, 0xb8, 0xb6, 0x3e, 0x00, 0x42, 0xb2, 0x37, 0x0e, 0xd4, 0xc3, 0xbd,
  0x8a, 0xd4, 0x44, 0xbe, 0xf6, 0xe1, 0x1b, 0x3f, 0xb7, 0x1b, 0x83, 0xbe,
  0x42, 0xe9, 0xd8, 0x3e, 0x09, 0xc1, 0xc2, 0x3d, 0x2e, 0xe7, 0x7a, 0x3c,
  0x61, 0x65, 0x75, 0xbd, 0x0c, 0x01, 0x87, 0xbd, 0x8c, 0xa7, 0x32, 0xbe,
  0xee, 0x83, 0x8f, 0xbe, 0xfa, 0x0d, 0x8c, 0xbe, 0x48, 0xf5, 0x64, 0x3d,
  0xdc, 0x49, 0xc4, 0x3d, 0xea, 0xe0, 0x81, 0xbe, 0xae, 0xfe, 0xd1, 0xbe,
  0x10, 0x99, 0x0d, 0xbd, 0x3e, 0x8f, 0x0a, 0xbe, 0x0c, 0xd6, 0x73, 0xbe,
  0x7c, 0x26, 0x46, 0xbe, 0x32, 0x19, 0x6a, 0x3e, 0x16, 0xea, 0x8c, 0xbe,
  0x40, 0xe7, 0xa9, 0xbe, 0x2d, 0xbf, 0xcd, 0x3e, 0x2f, 0xbc, 0xa5, 0x3e,
  0xc6, 0xd7, 0x35, 0x3e, 0x4d, 0x50, 0x3e, 0xbe, 0x51, 0x4f, 0x74, 0xbe,
  0xf4, 0xe1, 0x02, 0xbe, 0x80, 0x1d, 0x24, 0xbe, 0xd3, 0x3f, 0xd4, 0x3e,
  0x44, 0x79, 0x05, 0xbe, 0x16, 0xdb, 0x7c, 0xbe, 0x41, 0x4b, 0x98, 0xbd,
  0x0a, 0xeb, 0x0f, 0xbe, 0xe0, 0x8b, 0x14, 0xbe, 0xae, 0xf4, 0xaa, 0xbd,
  0x35, 0x57, 0xbb, 0x3e, 0x5e, 0x46, 0x5f, 0xbe, 0x35, 0x86, 0xa8, 0x3e,
  0x34, 0xd7, 0xdf, 0x3d, 0x2a, 0xac, 0x10, 0x3e, 0xd2, 0x44, 0x04, 0x3e,
  0x54, 0x7c, 0xbf, 0xbe, 0xa6, 0xaa, 0x50, 0x3f, 0xa1, 0x8d, 0x4f, 0x3f,
  0x1b, 0x59, 0xec, 0x3e, 0xf0, 0x6c, 0x19, 0x3f, 0x43, 0x27, 0x46, 0x3e,
  0x1b, 0x89, 0x1e, 0x3e, 0xc8, 0x31, 0xa4, 0x3e, 0x28, 0xdb, 0xc6, 0x3e,
  0xa0, 0x3c, 0x77, 0x3f, 0x21, 0xe7, 0xcf, 0x3c, 0xbc, 0x4c, 0xcb, 0xbd,
  0x04, 0x5a, 0x90, 0xbe, 0xaa, 0xc3, 0x15, 0x3f, 0xab, 0xfb, 0xb3, 0x3e,
  0xf6, 0x79, 0x2c, 0x3f, 0x45, 0xdf, 0xe6, 0x3e, 0x92, 0x1b, 0xa0, 0xbe,
  0x9f, 0xa9, 0x96, 0x3e, 0x35, 0x69, 0xf1, 0x3c, 0xf9, 0x9a, 0xec, 0x3e,
  0xfe, 0xd2, 0xfa, 0xbd, 0xf7, 0xd6, 0xbf, 0x3e, 0x62, 0xa0, 0x24, 0xbe,
  0xd3, 0xe8, 0xa4, 0xbe, 0x93, 0x48, 0xaa, 0xbe, 0xb9, 0x47, 0x54, 0x3e,
  0xc1, 0x01, 0xf4, 0xbe, 0xf0, 0x21, 0xcb, 0x3e, 0xde, 0x93, 0x81, 0x3e,
  0xa7, 0xd1, 0xc6, 0xbe, 0xe0, 0x59, 0x9c, 0xbe, 0x8a, 0x41, 0x0a, 0xbe,
  0xda, 0x84, 0xbf, 0x3d, 0x12, 0x4d, 0x06, 0xbd, 0x5b, 0x07, 0x50, 0xbe,
  0xfa, 0xa3, 0x3c, 0xbf, 0x5e, 0x6b, 0x7d, 0x3e, 0xc8, 0x60, 0x74, 0x3e,
  0x0e, 0x7e, 0x13, 0x3f, 0x1b, 0x38, 0xa1, 0xbe, 0xfd, 0x7a, 0xf4, 0xbe,
  0xa6, 0x40, 0xf9, 0xbe, 0x1a, 0x00, 0x59, 0x3f, 0x6e, 0x64, 0x8b, 0x3d,
  0x3b, 0x79, 0x57, 0xbe, 0xad, 0x35, 0x22, 0x3f, 0x43, 0xe0, 0xb1, 0xbe,
  0x4b, 0xf4, 0x3a, 0x3e, 0x68, 0x0b, 0x57, 0x3e, 0x28, 0x39, 0x48, 0xbd,
  0x17, 0x35, 0xf5, 0xbd, 0xb8, 0x1e, 0xf7, 0x3e, 0x7c, 0xc9, 0x47, 0xbf,
  0x4b, 0x87, 0x26, 0xbe, 0xf8, 0x26, 0x80, 0xbe, 0x5f, 0x90, 0xdd, 0xbe,
  0xce, 0xfb, 0x17, 0xbf, 0xf9, 0x60, 0x85, 0xbe, 0xe2, 0x32, 0x29, 0xbe,
  0x3f, 0x5c, 0xbb, 0xbe, 0xef, 0x1b, 0x97, 0x3c, 0xd1, 0x6b, 0x95, 0xbe,
  0x59, 0xfe, 0x4f, 0x3e, 0x51, 0x40, 0x7a, 0xbd, 0x9f, 0xea, 0x22, 0xbe,
  0x33, 0x2d, 0x15, 0x3d, 0xba, 0xc0, 0xff, 0xff, 0x10, 0x00, 0x00, 0x00,
  0x21, 0x00, 0x00, 0x00, 0x14, 0x00, 0x00, 0x00, 0x30, 0x00, 0x00, 0x00,
  0x02, 0x00, 0x00, 0x00, 0x11, 0x00, 0x00, 0x00, 0x11, 0x00, 0x00, 0x00,
  0x1a, 0x00, 0x00, 0x00, 0x73, 0x65, 0x71, 0x75, 0x65, 0x6e, 0x74, 0x69,
  0x61, 0x6c, 0x2f, 0x64, 0x65, 0x6e, 0x73, 0x65, 0x5f, 0x31, 0x31, 0x2f,
  0x4d, 0x61, 0x74, 0x4d, 0x75, 0x6c, 0x00, 0x00, 0x4c, 0xc0, 0xff, 0xff,
  0x56, 0xc1, 0xff, 0xff, 0x04, 0x00, 0x00, 0x00, 0x84, 0x04, 0x00, 0x00,
  0xbf, 0xee, 0xc7, 0xbd, 0x50, 0xd7, 0x05, 0x3e, 0x5e, 0x2a, 0x61, 0x3d,
  0xbd, 0xe6, 0x41, 0x3d, 0x02, 0x3d, 0xe8, 0x3d, 0x09, 0xaf, 0x57, 0xbe,
  0xcb, 0x97, 0xb0, 0x3d, 0xcc, 0x86, 0xc4, 0x3e, 0x2c, 0x1e, 0xc6, 0x3d,
  0xf3, 0x4c, 0x37, 0xbe, 0x26, 0x5f, 0x68, 0x3e, 0xe5, 0xad, 0x04, 0x3f,
  0xd9, 0xb5, 0x6b, 0xbe, 0xff, 0xd5, 0x7d, 0xbe, 0xf4, 0x29, 0x51, 0xbe,
  0x4a, 0x93, 0x29, 0x3e, 0x5b, 0xb2, 0xbc, 0x3e, 0x9a, 0x82, 0xaf, 0x3e,
  0x4b, 0x38, 0xaa, 0xbe, 0x32, 0xaa, 0x97, 0x3f, 0xdd, 0xbd, 0xed, 0x3e,
  0xfd, 0x02, 0x06, 0x3f, 0xf0, 0xd6, 0x9e, 0x3d, 0xe8, 0xfe, 0x4f, 0x3f,
  0xeb, 0x30, 0x08, 0xbd, 0x98, 0x44, 0x75, 0x3f, 0xb7, 0x0a, 0x01, 0x3f,
  0xbd, 0x28, 0x91, 0x3f, 0xe3, 0x87, 0xa4, 0x3e, 0x8b, 0x34, 0x1d, 0x3f,
  0x2a, 0xd9, 0x14, 0x3f, 0x7e, 0xc9, 0xfa, 0x3e, 0x2f, 0x20, 0xbc, 0x3e,
  0x83, 0x61, 0x2d, 0x3f, 0x47, 0x6e, 0x8e, 0xbe, 0xc0, 0xb9, 0x91, 0xbe,
  0x91, 0x4c, 0x02, 0xbe, 0xa7, 0xea, 0x66, 0x3e, 0x85, 0xdb, 0x93, 0x3e,
  0xcd, 0xa2, 0xa8, 0x3e, 0x9a, 0x8b, 0xd0, 0xbe, 0x4d, 0xc5, 0x15, 0x3f,
  0x6d, 0xea, 0x47, 0xbf, 0x50, 0x09, 0x80, 0xbf, 0x00, 0xa6, 0xdb, 0x3d,
  0xc8, 0xaa, 0xe6, 0xbe, 0x89, 0x7a, 0x6f, 0x3d, 0xb4, 0xcf, 0xa9, 0xbe,
  0x24, 0x4c, 0x68, 0x3e, 0x95, 0x33, 0x48, 0xbf, 0x5a, 0x72, 0x8b, 0x3d,
  0x22, 0x9e, 0xf9, 0xbe, 0x99, 0xca, 0x02, 0xbe, 0xda, 0x3a, 0x40, 0xbd,
  0x06, 0x78, 0xda, 0xbd, 0xb8, 0x91, 0xbd, 0xbe, 0xea, 0x6a, 0xae, 0xbe,
  0x8f, 0x80, 0xff, 0xbd, 0x37, 0xc3, 0x44, 0x3e, 0xde, 0x8b, 0x3e, 0x3e,
  0x0b, 0x6b, 0x4d, 0x3e, 0x8b, 0xd8, 0x8f, 0x3e, 0xaa, 0x5f, 0xb1, 0xbe,
  0x33, 0xde, 0x78, 0x3e, 0xa3, 0x92, 0x06, 0x3f, 0x58, 0xd3, 0x83, 0xbd,
  0xc6, 0x27, 0x76, 0x3d, 0x92, 0x4c, 0x13, 0x3e, 0x9b, 0x39, 0xb1, 0xbd,
  0x62, 0xf9, 0xa2, 0xbe, 0x91, 0x11, 0x60, 0x3e, 0xb7, 0x7e, 0xb7, 0x3e,
  0x89, 0x04, 0xa0, 0xbe, 0xa6, 0xb5, 0xc0, 0x3e, 0x53, 0x04, 0x1b, 0xbe,
  0x15, 0xe7, 0x2b, 0xbd, 0xb9, 0x3c, 0xfb, 0x3e, 0x36, 0xa2, 0xf2, 0x3e,
  0xd0, 0x17, 0x3a, 0x3f, 0x1a, 0x9e, 0xea, 0x3e, 0x67, 0x48, 0x99, 0x3d,
  0x03, 0x44, 0xcb, 0xbe, 0xb8, 0xd3, 0x0d, 0x3e, 0x08, 0xbf, 0x13, 0x3f,
  0xbf, 0x12, 0x0d, 0xbe, 0xd7, 0x39, 0x88, 0x3d, 0x40, 0xae, 0x10, 0x3e,
  0xfc, 0xc7, 0xfc, 0xbd, 0x77, 0x01, 0xa6, 0xbe, 0x33, 0xb6, 0xb1, 0x3d,
  0x35, 0xbf, 0xb7, 0xbe, 0xee, 0x3c, 0x30, 0x3e, 0x77, 0x9a, 0x9f, 0x3d,
  0x5e, 0xe3, 0x26, 0x3f, 0x70, 0x4e, 0xb8, 0x3e, 0x33, 0x14, 0x17, 0x3f,
  0xe2, 0x0b, 0x45, 0xbd, 0x2a, 0xf6, 0x7d, 0xbe, 0xbf, 0x09, 0x8d, 0x3c,
  0xd5, 0xcb, 0x62, 0x3e, 0x07, 0xa0, 0x8b, 0x3e, 0x6f, 0xc1, 0xc9, 0x3d,
  0x22, 0x37, 0x79, 0xbe, 0x5c, 0x9d, 0x41, 0xbe, 0x8a, 0x50, 0xdc, 0x3e,
  0x24, 0x56, 0x17, 0x3e, 0x8c, 0xa5, 0x85, 0xbd, 0x4e, 0x6c, 0x2e, 0x3e,
  0x01, 0x35, 0x0e, 0x3c, 0xaa, 0xee, 0x91, 0x3e, 0x8b, 0xc6, 0x15, 0x3f,
  0x70, 0x5c, 0x57, 0xbc, 0x41, 0x76, 0x9c, 0x3d, 0xd3, 0xf5, 0x46, 0x3e,
  0x60, 0x19, 0xc6, 0xbe, 0xac, 0xd8, 0x3f, 0x3d, 0xc7, 0xda, 0x84, 0x3e,
  0x9a, 0xe3, 0x22, 0xbe, 0x3e, 0x57, 0xb0, 0xbe, 0x4e, 0x04, 0xf1, 0x3c,
  0x24, 0xdd, 0xb6, 0x3e, 0x35, 0xb5, 0x97, 0xbe, 0xb1, 0xe0, 0x41, 0xbf,
  0xcb, 0x66, 0x4a, 0x3e, 0xef, 0x47, 0xd3, 0xbd, 0xd6, 0x0c, 0xfb, 0xbd,
  0x2b, 0x05, 0x51, 0x3f, 0x28, 0x2c, 0xc4, 0xbe, 0x83, 0xcc, 0x69, 0xbe,
  0x84, 0x0b, 0xa9, 0x3e, 0x4f, 0x49, 0xa0, 0x3e, 0x0d, 0xdb, 0xe2, 0xbd,
  0xb3, 0x83, 0xd9, 0xbc, 0xea, 0x06, 0x68, 0x3e, 0x96, 0x62, 0xe1, 0x3e,
  0x16, 0x20, 0x92, 0xbe, 0xab, 0x7e, 0x43, 0x3e, 0xcb, 0x58, 0x3b, 0x3f,
  0x1c, 0xd7, 0x24, 0x3f, 0x2e, 0xc1, 0x0d, 0xbf, 0x18, 0xfe, 0x6a, 0x3e,
  0x98, 0x9c, 0x5a, 0xbe, 0xff, 0xa7, 0xa2, 0x3e, 0x25, 0x0c, 0xc0, 0xbe,
  0x70, 0xe0, 0xff, 0x3d, 0x8c, 0xac, 0xae, 0x3e, 0x20, 0xde, 0xf2, 0x3e,
  0xf2, 0xaa, 0x12, 0x3f, 0x73, 0x62, 0x8c, 0x3d, 0xe0, 0xd2, 0x6b, 0x3e,
  0x78, 0x77, 0xb5, 0x3c, 0xa5, 0x9e, 0xbc, 0x3e, 0xe0, 0x28, 0xfe, 0xbe,
  0x76, 0x27, 0xe5, 0x3e, 0x6b, 0x46, 0xbe, 0x3e, 0xb8, 0xa5, 0x16, 0x3f,
  0x3b, 0xa2, 0xb3, 0xbe, 0x81, 0x78, 0x03, 0xbf, 0x30, 0xb2, 0x57, 0xbe,
  0x83, 0x92, 0xb9, 0x3e, 0xe0, 0x91, 0x9c, 0x3c, 0x04, 0x9d, 0xec, 0x3e,
  0xd0, 0x9c, 0x8e, 0x3e, 0x7a, 0x12, 0xbd, 0x3e, 0xbd, 0x13, 0x5b, 0x3e,
  0x91, 0xbe, 0x97, 0xbe, 0x48, 0x92, 0x0e, 0xbc, 0xd0, 0xd4, 0xb8, 0xbd,
  0xa5, 0x34, 0x92, 0x3e, 0xcf, 0x64, 0x28, 0xbd, 0xcb, 0x0d, 0xcd, 0xbe,
  0xf8, 0xb5, 0x0d, 0x3e, 0x62, 0xcf, 0x28, 0x3e, 0xca, 0xf6, 0x1a, 0x3f,
  0x46, 0xfd, 0xa2, 0x3d, 0x4a, 0x50, 0x06, 0x3f, 0x9a, 0xa6, 0xd3, 0x3e,
  0x44, 0xff, 0x4e, 0xbe, 0x9b, 0xe1, 0x40, 0x3e, 0x62, 0x47, 0xfa, 0x3d,
  0xa8, 0x2b, 0x23, 0x3f, 0x53, 0x6f, 0xa7, 0x3d, 0x88, 0x89, 0x8b, 0x3b,
  0xde, 0x94, 0x21, 0xbf, 0x6a, 0xf0, 0xdd, 0xbc, 0x36, 0x92, 0x1f, 0x3f,
  0xb8, 0x9f, 0xc9, 0x3d, 0xab, 0xa3, 0x88, 0x3e, 0x4b, 0x30, 0xfd, 0x3e,
  0x0b, 0x8e, 0x9b, 0x3e, 0xc4, 0x43, 0x0f, 0xbe, 0x81, 0x9f, 0x5c, 0x3e,
  0xa5, 0xcd, 0x8a, 0xbe, 0x5f, 0xfd, 0x99, 0x3d, 0x22, 0xd4, 0x05, 0xbf,
  0xb3, 0x34, 0xcc, 0x3e, 0x2a, 0x16, 0xd1, 0x3e, 0x55, 0xe9, 0x4a, 0x3f,
  0x77, 0x2f, 0xcd, 0x3e, 0x3c, 0x7c, 0xca, 0xbd, 0x74, 0x84, 0x71, 0xbe,
  0x3e, 0x35, 0x07, 0x3e, 0x5f, 0x56, 0x80, 0x3e, 0x62, 0x2a, 0x02, 0xbe,
  0x6a, 0xd9, 0x9d, 0xbd, 0x98, 0xd8, 0x8e, 0xbd, 0x44, 0x28, 0x64, 0xbe,
  0x82, 0x50, 0xcd, 0x3c, 0x9e, 0x32, 0x78, 0x3e, 0xeb, 0xf2, 0x53, 0x3c,
  0x79, 0x1f, 0x1f, 0x3d, 0xc5, 0xc2, 0xf8, 0xbd, 0x1f, 0x17, 0x04, 0xbf,
  0x5b, 0x1d, 0x84, 0xbe, 0x7f, 0x9f, 0x20, 0xbd, 0xdb, 0xfb, 0x01, 0x3e,
  0xc9, 0xc4, 0x15, 0xbf, 0x76, 0xe0, 0x01, 0x3e, 0x7e, 0xe3, 0xdd, 0xbe,
  0x81, 0xfd, 0x07, 0x3e, 0x61, 0x4e, 0x08, 0xbe, 0xcc, 0xd6, 0x20, 0xbf,
  0x03, 0x83, 0x94, 0x3e, 0x71, 0x97, 0x03, 0x3e, 0xec, 0x75, 0xa6, 0x3e,
  0x51, 0x90, 0x06, 0xbd, 0x75, 0xc7, 0xaf, 0x3e, 0xce, 0xac, 0x33, 0x3e,
  0x2a, 0x19, 0xe1, 0x3d, 0xd3, 0xc1, 0x09, 0x3f, 0x2b, 0x61, 0x3e, 0xbe,
  0xdd, 0x12, 0x78, 0x3d, 0x53, 0x79, 0x7c, 0x3f, 0x42, 0xc7, 0x00, 0xbf,
  0xed, 0x0e, 0x2c, 0xbe, 0x41, 0x39, 0x3d, 0xbd, 0x48, 0x58, 0x69, 0xbe,
  0xd9, 0xf5, 0xde, 0x3e, 0xcc, 0x4b, 0xa4, 0xbe, 0xd8, 0x91, 0x9c, 0x3e,
  0x05, 0x0c, 0x1d, 0xbd, 0x83, 0xf1, 0x9d, 0xbe, 0xf2, 0x68, 0xe4, 0x3d,
  0x94, 0x67, 0x91, 0x3e, 0x79, 0xdf, 0xe6, 0x3d, 0x16, 0x13, 0x8c, 0xbe,
  0xa5, 0xd5, 0x84, 0x3e, 0xbb, 0x0a, 0x76, 0x3e, 0xbf, 0xd9, 0xba, 0x3e,
  0x21, 0xdf, 0xb7, 0x3e, 0x69, 0xd1, 0x14, 0xbd, 0x65, 0x46, 0x97, 0xbd,
  0xfe, 0xfc, 0x7b, 0x3e, 0xe0, 0x18, 0x32, 0x3e, 0xf5, 0x2f, 0x38, 0xbd,
  0x20, 0x7d, 0x7d, 0xbe, 0x11, 0xf2, 0x94, 0xbd, 0xb4, 0x26, 0x71, 0x3e,
  0xf1, 0x20, 0x05, 0x3d, 0x03, 0xe7, 0xfb, 0x3e, 0x98, 0x18, 0xba, 0xbd,
  0x4c, 0x57, 0x7b, 0xbe, 0x5b, 0x52, 0x63, 0x3d, 0x19, 0x9d, 0x71, 0x3e,
  0xd7, 0x7c, 0xf2, 0xbe, 0x0d, 0xeb, 0xde, 0x3e, 0x54, 0xd2, 0x75, 0xbe,
  0x7e, 0x2c, 0xe8, 0xbc, 0xe5, 0x2d, 0x8a, 0xbd, 0xd1, 0x25, 0xcc, 0x3d,
  0xd4, 0x25, 0x62, 0xbe, 0xd8, 0xd5, 0x07, 0xbe, 0x95, 0x49, 0x9a, 0xbe,
  0x0d, 0x3e, 0xd3, 0x3d, 0x02, 0x79, 0x5c, 0x3d, 0x89, 0xba, 0x74, 0x3d,
  0x27, 0x86, 0xb4, 0x3e, 0x3c, 0x5a, 0xa9, 0xbe, 0x23, 0x0e, 0x0c, 0x3e,
  0xfb, 0x77, 0x02, 0x3e, 0x16, 0xf2, 0xe3, 0x3c, 0x1a, 0x10, 0xe1, 0xbc,
  0x71, 0xef, 0x63, 0x3f, 0x9e, 0x8b, 0x94, 0xbe, 0xa4, 0x32, 0x19, 0x3d,
  0x70, 0xab, 0xaa, 0xbe, 0x22, 0x08, 0x05, 0x3e, 0x9a, 0xab, 0x0e, 0x3e,
